const unsigned char dht_anomaly_model_tflite[] = {
  0x1c, 0x00, 0x00, 0x00, 0x54, 0x46, 0x4c, 0x33, 0x14, 0x00, 0x20, 0x00,
  0x1c, 0x00, 0x18, 0x00, 0x14, 0x00, 0x10, 0x00, 0x0c, 0x00, 0x00, 0x00,
  0x08, 0x00, 0x04, 0x00, 0x14, 0x00, 0x00, 0x00, 0x1c, 0x00, 0x00, 0x00,
  0x8c, 0x00, 0x00, 0x00, 0xe4, 0x00, 0x00, 0x00, 0x38, 0x16, 0x00, 0x00,
  0x48, 0x16, 0x00, 0x00, 0x7c, 0x1f, 0x00, 0x00, 0x03, 0x00, 0x00, 0x00,
  0x01, 0x00, 0x00, 0x00, 0x04, 0x00, 0x00, 0x00, 0x76, 0xe9, 0xff, 0xff,
  0x0c, 0x00, 0x00, 0x00, 0x1c, 0x00, 0x00, 0x00, 0x3c, 0x00, 0x00, 0x00,
  0x0f, 0x00, 0x00, 0x00, 0x73, 0x65, 0x72, 0x76, 0x69, 0x6e, 0x67, 0x5f,
  0x64, 0x65, 0x66, 0x61, 0x75, 0x6c, 0x74, 0x00, 0x01, 0x00, 0x00, 0x00,
  0x04, 0x00, 0x00, 0x00, 0x90, 0xff, 0xff, 0xff, 0x0d, 0x00, 0x00, 0x00,
  0x04, 0x00, 0x00, 0x00, 0x08, 0x00, 0x00, 0x00, 0x6f, 0x75, 0x74, 0x70,
  0x75, 0x74, 0x5f, 0x30, 0x00, 0x00, 0x00, 0x00, 0x01, 0x00, 0x00, 0x00,
  0x04, 0x00, 0x00, 0x00, 0x4a, 0xeb, 0xff, 0xff, 0x04, 0x00, 0x00, 0x00,
  0x0c, 0x00, 0x00, 0x00, 0x6b, 0x65, 0x72, 0x61, 0x73, 0x5f, 0x74, 0x65,
  0x6e, 0x73, 0x6f, 0x72, 0x00, 0x00, 0x00, 0x00, 0x02, 0x00, 0x00, 0x00,
  0x34, 0x00, 0x00, 0x00, 0x04, 0x00, 0x00, 0x00, 0xdc, 0xff, 0xff, 0xff,
  0x10, 0x00, 0x00, 0x00, 0x04, 0x00, 0x00, 0x00, 0x13, 0x00, 0x00, 0x00,
  0x43, 0x4f, 0x4e, 0x56, 0x45, 0x52, 0x53, 0x49, 0x4f, 0x4e, 0x5f, 0x4d,
  0x45, 0x54, 0x41, 0x44, 0x41, 0x54, 0x41, 0x00, 0x08, 0x00, 0x0c, 0x00,
  0x08, 0x00, 0x04, 0x00, 0x08, 0x00, 0x00, 0x00, 0x0f, 0x00, 0x00, 0x00,
  0x04, 0x00, 0x00, 0x00, 0x13, 0x00, 0x00, 0x00, 0x6d, 0x69, 0x6e, 0x5f,
  0x72, 0x75, 0x6e, 0x74, 0x69, 0x6d, 0x65, 0x5f, 0x76, 0x65, 0x72, 0x73,
  0x69, 0x6f, 0x6e, 0x00, 0x11, 0x00, 0x00, 0x00, 0x50, 0x15, 0x00, 0x00,
  0x48, 0x15, 0x00, 0x00, 0x38, 0x14, 0x00, 0x00, 0x20, 0x12, 0x00, 0x00,
  0xd0, 0x11, 0x00, 0x00, 0xbc, 0x11, 0x00, 0x00, 0x2c, 0x11, 0x00, 0x00,
  0x1c, 0x09, 0x00, 0x00, 0xcc, 0x08, 0x00, 0x00, 0xbc, 0x00, 0x00, 0x00,
  0xb4, 0x00, 0x00, 0x00, 0xac, 0x00, 0x00, 0x00, 0xa4, 0x00, 0x00, 0x00,
  0x9c, 0x00, 0x00, 0x00, 0x94, 0x00, 0x00, 0x00, 0x74, 0x00, 0x00, 0x00,
  0x04, 0x00, 0x00, 0x00, 0x0a, 0xec, 0xff, 0xff, 0x04, 0x00, 0x00, 0x00,
  0x60, 0x00, 0x00, 0x00, 0x0c, 0x00, 0x00, 0x00, 0x08, 0x00, 0x0e, 0x00,
  0x08, 0x00, 0x04, 0x00, 0x08, 0x00, 0x00, 0x00, 0x10, 0x00, 0x00, 0x00,
  0x28, 0x00, 0x00, 0x00, 0x00, 0x00, 0x06, 0x00, 0x08, 0x00, 0x04, 0x00,
  0x06, 0x00, 0x00, 0x00, 0x04, 0x00, 0x00, 0x00, 0x01, 0x00, 0x00, 0x00,
  0xea, 0x03, 0x00, 0x00, 0x0c, 0x00, 0x18, 0x00, 0x14, 0x00, 0x10, 0x00,
  0x0c, 0x00, 0x04, 0x00, 0x0c, 0x00, 0x00, 0x00, 0x90, 0x39, 0x46, 0xf0,
  0x7d, 0x83, 0x36, 0xd3, 0x02, 0x00, 0x00, 0x00, 0x02, 0x00, 0x00, 0x00,
  0x04, 0x00, 0x00, 0x00, 0x06, 0x00, 0x00, 0x00, 0x32, 0x2e, 0x32, 0x30,
  0x2e, 0x30, 0x00, 0x00, 0x76, 0xec, 0xff, 0xff, 0x04, 0x00, 0x00, 0x00,
  0x10, 0x00, 0x00, 0x00, 0x32, 0x2e, 0x31, 0x37, 0x2e, 0x30, 0x00, 0x00,
  0x00, 0x00, 0x00, 0x00, 0x00, 0x00, 0x00, 0x00, 0x64, 0xe2, 0xff, 0xff,
  0x68, 0xe2, 0xff, 0xff, 0x6c, 0xe2, 0xff, 0xff, 0x70, 0xe2, 0xff, 0xff,
  0x74, 0xe2, 0xff, 0xff, 0xa6, 0xec, 0xff, 0xff, 0x04, 0x00, 0x00, 0x00,
  0x00, 0x08, 0x00, 0x00, 0x02, 0xfc, 0xce, 0x4d, 0x0a, 0x0c, 0xf9, 0xff,
  0xe4, 0xff, 0xde, 0x30, 0xf7, 0xf8, 0x81, 0xa9, 0x0c, 0x0c, 0x24, 0xf0,
  0x00, 0x2a, 0xf4, 0xff, 0xcf, 0xe9, 0xc1, 0xc7, 0xff, 0x00, 0xd2, 0x01,
  0xe9, 0x25, 0x14, 0x13, 0x00, 0x2a, 0x2b, 0x9f, 0xff, 0x03, 0xfc, 0x3c,
  0xdf, 0x27, 0x16, 0x01, 0x2c, 0x42, 0x01, 0x4b, 0xbc, 0xff, 0x03, 0x26,
  0xd5, 0xae, 0x17, 0x1a, 0xb8, 0x11, 0xe7, 0xe9, 0xa3, 0xb2, 0x5b, 0x01,
  0x64, 0x35, 0xe0, 0x02, 0x33, 0xff, 0xea, 0xd4, 0x6d, 0x13, 0xfd, 0xee,
  0xcd, 0xbe, 0x06, 0x0b, 0x00, 0x4b, 0xd2, 0x00, 0x09, 0x2c, 0xef, 0xc1,
  0x00, 0x10, 0x03, 0xff, 0xcf, 0xad, 0x57, 0xaa, 0xff, 0xc8, 0x2c, 0x0d,
  0x00, 0x15, 0x01, 0xc4, 0xd4, 0x12, 0xda, 0xff, 0x0a, 0xf6, 0xfb, 0xfc,
  0xe2, 0x00, 0xa1, 0xeb, 0x55, 0x02, 0x10, 0x2e, 0x01, 0x81, 0x07, 0x45,
  0xf6, 0xfb, 0x81, 0xfd, 0xff, 0x24, 0xf2, 0xff, 0x0a, 0x00, 0xf5, 0xfe,
  0xc0, 0x24, 0xe0, 0xae, 0x0c, 0x06, 0x21, 0x13, 0x00, 0x14, 0x20, 0x00,
  0x09, 0x1b, 0xfa, 0x13, 0x00, 0xe6, 0xe5, 0xdc, 0x34, 0x05, 0x38, 0x14,
  0x00, 0x2f, 0x0e, 0xe3, 0x00, 0x28, 0x00, 0xe3, 0x3a, 0x35, 0xfe, 0xfa,
  0xed, 0x32, 0xf4, 0x07, 0x17, 0x00, 0x06, 0xfc, 0xe6, 0xea, 0x0c, 0x2f,
  0x04, 0x23, 0xe9, 0xfb, 0x00, 0x03, 0x53, 0xca, 0xe2, 0xca, 0xfb, 0xfb,
  0x04, 0x00, 0x1e, 0x03, 0x38, 0xea, 0xd9, 0x5d, 0x2e, 0xb9, 0x04, 0x20,
  0x00, 0x0a, 0x7f, 0x00, 0x3d, 0xe4, 0xf5, 0x4e, 0x00, 0xf3, 0x14, 0xe3,
  0x05, 0xe5, 0x17, 0xad, 0x00, 0xd8, 0xee, 0x57, 0x00, 0x12, 0x00, 0xe4,
  0xa6, 0xe5, 0x0a, 0xfb, 0xca, 0xef, 0xfb, 0xd7, 0xb5, 0x00, 0xde, 0x11,
  0x30, 0x49, 0xf8, 0xff, 0x2c, 0xbc, 0x5c, 0x16, 0x44, 0x52, 0xc9, 0x1f,
  0x2a, 0xd2, 0x1f, 0xf6, 0x24, 0x01, 0xcc, 0x23, 0x0d, 0x34, 0xc2, 0x12,
  0xfc, 0x9e, 0x08, 0xd5, 0x00, 0x18, 0x08, 0x00, 0xcc, 0x04, 0x1c, 0xef,
  0x00, 0xe8, 0xec, 0x06, 0xe8, 0xff, 0x24, 0xc5, 0x00, 0x3e, 0xed, 0xd2,
  0x01, 0xe0, 0x01, 0xf9, 0xe3, 0x0c, 0xc3, 0x01, 0x5e, 0x6d, 0x03, 0x34,
  0xdc, 0x01, 0xac, 0x81, 0x1a, 0xbc, 0x16, 0x28, 0xbb, 0xf1, 0xcd, 0xb4,
  0x0d, 0x07, 0xbd, 0x5d, 0xf6, 0x4b, 0xfd, 0xfb, 0xd9, 0x01, 0xbd, 0x07,
  0xc1, 0x2c, 0xb7, 0x81, 0x06, 0xea, 0xde, 0xa7, 0x00, 0x17, 0x9a, 0x02,
  0xd3, 0x3c, 0x1f, 0xd0, 0x01, 0x19, 0xa6, 0x05, 0xe8, 0x02, 0x6c, 0x3b,
  0x01, 0x18, 0x64, 0xbf, 0x01, 0x12, 0xfd, 0x03, 0xf2, 0x72, 0xdc, 0x00,
  0x4b, 0x30, 0x02, 0x43, 0x00, 0x01, 0x2c, 0x1d, 0x25, 0xc0, 0xe8, 0x21,
  0x0e, 0xf7, 0xc5, 0xd8, 0xe2, 0x29, 0x4d, 0xe1, 0x52, 0xc0, 0xcf, 0x00,
  0x53, 0xff, 0x20, 0x02, 0x40, 0xdb, 0x23, 0x1a, 0x05, 0xe2, 0xd5, 0xf2,
  0x00, 0x03, 0x23, 0x00, 0x3f, 0xcd, 0x2c, 0x1b, 0x01, 0xd8, 0x52, 0x00,
  0xf3, 0xa9, 0xe2, 0x81, 0xff, 0xaf, 0xb4, 0x50, 0x00, 0xfa, 0xf4, 0x0d,
  0xdc, 0xfb, 0x01, 0x03, 0xc9, 0x05, 0xfa, 0xcb, 0x5b, 0x00, 0xe8, 0x10,
  0x05, 0xfa, 0xbf, 0x1e, 0x64, 0xfa, 0x35, 0x3d, 0xfb, 0xf6, 0xf7, 0xcf,
  0xf9, 0xe7, 0xf7, 0xf2, 0x1c, 0x00, 0x74, 0xa8, 0xf5, 0xf3, 0x47, 0x2f,
  0x06, 0xc9, 0xd3, 0x1d, 0x00, 0x04, 0x4a, 0x00, 0x6e, 0xf8, 0x04, 0x19,
  0x00, 0xdf, 0x1c, 0x00, 0xe1, 0xc9, 0xa7, 0xd1, 0x00, 0xc3, 0xc9, 0x3c,
  0x00, 0xc1, 0x2c, 0x04, 0xe4, 0xf2, 0x10, 0x00, 0xa7, 0x01, 0xfc, 0xd0,
  0x43, 0x00, 0xbe, 0xfe, 0x4c, 0x29, 0xdf, 0x38, 0x32, 0xd6, 0x7f, 0x12,
  0xbd, 0xe1, 0x1e, 0x3a, 0xd6, 0xc1, 0x3b, 0x01, 0x0a, 0xff, 0x2e, 0xd9,
  0xef, 0x5c, 0x35, 0x5a, 0x3d, 0x3f, 0x00, 0xcc, 0xff, 0x1a, 0xc2, 0xff,
  0xd4, 0xf0, 0x0a, 0xf6, 0x00, 0xc9, 0x26, 0xdb, 0x62, 0x20, 0xcc, 0x2c,
  0xff, 0xee, 0x7c, 0xf5, 0xff, 0xd3, 0xfd, 0x4c, 0x22, 0xb2, 0x81, 0xe4,
  0x37, 0x0e, 0xaa, 0x3d, 0x12, 0xff, 0xfd, 0x32, 0xfb, 0x32, 0x19, 0xb1,
  0xd7, 0x0a, 0xf7, 0x45, 0xdc, 0xcf, 0xe4, 0x43, 0x13, 0x57, 0x0a, 0xfe,
  0x69, 0x01, 0xbe, 0x11, 0xcb, 0x59, 0xf5, 0x2c, 0x1a, 0x1a, 0xd1, 0xf3,
  0x01, 0x5b, 0x81, 0x01, 0x1e, 0x30, 0xef, 0xdc, 0x00, 0x00, 0xea, 0xfb,
  0xa6, 0x07, 0x06, 0xc8, 0x01, 0x4e, 0xfc, 0xa2, 0x00, 0xb7, 0xfd, 0x32,
  0x33, 0xe7, 0x33, 0xfc, 0xfe, 0x23, 0xfd, 0x28, 0x61, 0x01, 0xf1, 0xf3,
  0x21, 0xfa, 0x1f, 0x13, 0x0d, 0x2b, 0xd5, 0x25, 0xe9, 0xd7, 0xdd, 0xe8,
  0x3d, 0x2c, 0x1f, 0x01, 0x1c, 0xfe, 0x90, 0x08, 0x90, 0x0b, 0xdb, 0x81,
  0x02, 0xe7, 0x09, 0xce, 0xff, 0x0d, 0xb6, 0xff, 0xf5, 0x23, 0xfe, 0xd0,
  0xff, 0xe4, 0xde, 0xfe, 0xe1, 0xe8, 0x3e, 0x3b, 0xff, 0x4a, 0x48, 0xfa,
  0xff, 0x44, 0xff, 0x33, 0xdc, 0x06, 0xf6, 0xfd, 0xfe, 0x15, 0xfb, 0x32,
  0xfa, 0xff, 0x2b, 0xd3, 0xf0, 0xd1, 0xfc, 0x25, 0xff, 0xd0, 0xd6, 0x00,
  0xfc, 0xfb, 0x2b, 0xc8, 0xfe, 0x0f, 0xd3, 0x1c, 0x2c, 0xff, 0x4f, 0xed,
  0x20, 0xb4, 0xfe, 0x3b, 0xed, 0xfd, 0xe8, 0x13, 0x00, 0xf8, 0x4f, 0x00,
  0x41, 0x9b, 0x0a, 0x37, 0x00, 0xf1, 0x4f, 0xfe, 0xcf, 0xc0, 0xf8, 0x04,
  0x00, 0xd2, 0xda, 0x56, 0x00, 0xd1, 0xff, 0xb2, 0xe9, 0x00, 0x04, 0x00,
  0x81, 0x3c, 0xfe, 0xd5, 0x15, 0x00, 0x12, 0xf1, 0x69, 0x28, 0x9f, 0x2d,
  0x40, 0xe0, 0x54, 0x52, 0xd2, 0xe5, 0x3e, 0xf6, 0xde, 0xba, 0x18, 0xfc,
  0xf0, 0x00, 0x1f, 0xc8, 0x2b, 0xb2, 0xf4, 0x02, 0xbe, 0xc3, 0x22, 0xe9,
  0x00, 0xd6, 0x74, 0x00, 0x00, 0xa5, 0x14, 0x1d, 0x00, 0x0f, 0x51, 0xff,
  0x1f, 0xf7, 0x0f, 0x8b, 0x00, 0xb6, 0xba, 0xe5, 0x00, 0x3d, 0x30, 0x91,
  0xe8, 0xfb, 0xfe, 0x00, 0x3b, 0xee, 0x03, 0x8b, 0x17, 0x00, 0x26, 0x81,
  0x29, 0x42, 0xeb, 0x13, 0x39, 0xb0, 0xfc, 0x02, 0xfc, 0xfb, 0xbd, 0x05,
  0x5c, 0x1d, 0x15, 0x00, 0x19, 0xff, 0xa6, 0x13, 0xa2, 0x01, 0x98, 0xcd,
  0x13, 0xe7, 0x54, 0x08, 0x00, 0xea, 0xfa, 0xff, 0x81, 0x4f, 0xd0, 0xa9,
  0x00, 0x18, 0xc0, 0xfe, 0xc2, 0x41, 0x1b, 0x3b, 0x00, 0x3a, 0x55, 0xdb,
  0xff, 0x56, 0xff, 0x23, 0x26, 0x79, 0xe1, 0x00, 0x0d, 0x71, 0xfe, 0x33,
  0xf2, 0x00, 0x40, 0x5d, 0x9e, 0xb2, 0x01, 0xe0, 0xef, 0x32, 0xb3, 0x1b,
  0xfb, 0xf9, 0x64, 0xf0, 0x1b, 0x1a, 0xec, 0x21, 0x21, 0x00, 0x3d, 0xb2,
  0x5c, 0xca, 0x12, 0x31, 0xb3, 0xf4, 0xc6, 0x26, 0x00, 0x18, 0xf3, 0x00,
  0x03, 0xa8, 0xfd, 0x35, 0x00, 0xc1, 0x5e, 0x00, 0xb4, 0xef, 0x81, 0xe7,
  0x00, 0xca, 0xc2, 0x22, 0x00, 0xa1, 0xf5, 0x61, 0xfd, 0xe3, 0x11, 0xfe,
  0xb1, 0xe6, 0xfa, 0xf1, 0x1b, 0x00, 0xaf, 0x88, 0x27, 0x1b, 0x02, 0x0a,
  0xe4, 0x82, 0x2c, 0x02, 0xf1, 0x1a, 0x0e, 0x27, 0x66, 0x04, 0x4a, 0x06,
  0xd0, 0x02, 0xcf, 0xd7, 0x17, 0x4d, 0xbd, 0x93, 0xd2, 0x19, 0x41, 0xff,
  0x01, 0x28, 0xd0, 0x01, 0x87, 0x44, 0x21, 0xb8, 0x01, 0x22, 0xdd, 0xfe,
  0x64, 0x07, 0x24, 0x7f, 0x00, 0x75, 0x6b, 0xa7, 0x01, 0x32, 0xff, 0x17,
  0xf4, 0x20, 0xdb, 0x06, 0x39, 0x2d, 0x03, 0x3a, 0xd6, 0x01, 0xdd, 0x5b,
  0xce, 0xb5, 0x47, 0xae, 0xd4, 0x49, 0xb6, 0xca, 0x55, 0xef, 0x37, 0x7f,
  0x3f, 0x22, 0xdc, 0xfe, 0xf1, 0x02, 0xd3, 0x18, 0xbd, 0x6c, 0x03, 0x94,
  0xc4, 0x14, 0x1d, 0xb6, 0x01, 0x2a, 0xc5, 0x00, 0xd5, 0x74, 0x32, 0xcc,
  0x01, 0x0f, 0xb5, 0xf5, 0xf0, 0x01, 0x2d, 0x2d, 0x00, 0x72, 0x4a, 0xd1,
  0x01, 0x25, 0x02, 0x3b, 0xe9, 0x32, 0x2f, 0x00, 0x6b, 0x2f, 0x10, 0x51,
  0x2c, 0x01, 0x13, 0x23, 0xd4, 0x85, 0x75, 0xd9, 0xb7, 0x18, 0xf7, 0xe6,
  0x15, 0x13, 0xf8, 0xdd, 0x5e, 0x4c, 0x22, 0xff, 0x22, 0x02, 0x07, 0x06,
  0xe0, 0x62, 0xd1, 0x05, 0xf0, 0x25, 0xf1, 0x07, 0x01, 0x35, 0xa1, 0x01,
  0x11, 0x07, 0xeb, 0xfb, 0x00, 0xec, 0x01, 0x06, 0x01, 0x30, 0x49, 0x45,
  0x01, 0x05, 0x7f, 0x0e, 0x01, 0x04, 0xf5, 0x3e, 0x02, 0x31, 0xab, 0x01,
  0x04, 0x09, 0x05, 0x0a, 0x17, 0x01, 0xff, 0x27, 0x17, 0xe0, 0x39, 0x14,
  0xcc, 0xfe, 0xbf, 0xf6, 0xae, 0xb0, 0x1f, 0x4a, 0x62, 0x4c, 0xca, 0x03,
  0xdf, 0xfe, 0x02, 0xce, 0xe6, 0xe9, 0x37, 0x37, 0xdb, 0x0f, 0x11, 0x81,
  0xff, 0x21, 0xa7, 0xff, 0xb2, 0xe9, 0x30, 0x18, 0xff, 0xfd, 0xb6, 0x01,
  0xec, 0x06, 0x33, 0xe7, 0xff, 0x49, 0xa6, 0x21, 0xfe, 0xec, 0x01, 0x26,
  0xf3, 0x21, 0x3c, 0x00, 0x1d, 0xf8, 0xf7, 0xf5, 0xf2, 0x00, 0x08, 0x07,
  0x42, 0xce, 0xce, 0xca, 0xfc, 0x32, 0xe8, 0xf9, 0xfd, 0xfc, 0xf9, 0x2e,
  0x34, 0xde, 0x1b, 0xfb, 0xf3, 0xff, 0x09, 0x0b, 0xe7, 0x43, 0xd0, 0xbd,
  0x17, 0x14, 0xfd, 0xe9, 0xff, 0x01, 0xd9, 0x00, 0xce, 0x4b, 0xbe, 0xd5,
  0x00, 0x38, 0xbb, 0x02, 0xf4, 0x2a, 0x2b, 0x39, 0x00, 0x26, 0x42, 0xed,
  0xff, 0x31, 0xfd, 0xff, 0xbb, 0x42, 0x42, 0xfe, 0xe6, 0xff, 0xfb, 0x2d,
  0x02, 0x00, 0xce, 0x22, 0xfe, 0xcc, 0x38, 0xcd, 0x81, 0xf1, 0xbb, 0xbc,
  0xcb, 0xeb, 0xe8, 0xcf, 0x3a, 0x05, 0xc6, 0x00, 0xf2, 0x00, 0xed, 0xe9,
  0x3b, 0xf0, 0x72, 0x44, 0x9d, 0xba, 0xfd, 0xbf, 0x00, 0x25, 0xea, 0x00,
  0x3f, 0xac, 0x12, 0x03, 0x00, 0xe8, 0x52, 0xef, 0x81, 0xec, 0xd3, 0x92,
  0x00, 0xf6, 0xf9, 0xeb, 0xfe, 0xae, 0x01, 0xe8, 0xf5, 0xd7, 0x31, 0xf5,
  0xf7, 0xe6, 0xcb, 0x49, 0x69, 0x00, 0xf1, 0xcf, 0xf8, 0x4f, 0xa9, 0x00,
  0xcc, 0xc0, 0x34, 0x31, 0x98, 0xa6, 0xbd, 0x00, 0x8b, 0xee, 0xe9, 0x00,
  0x0b, 0x00, 0x81, 0xee, 0x1a, 0x12, 0xc3, 0xf7, 0x13, 0x45, 0x01, 0x1d,
  0x00, 0xe2, 0xc9, 0x00, 0x91, 0xcf, 0xd8, 0x00, 0x00, 0x15, 0xb9, 0xfc,
  0xd7, 0xf1, 0xf8, 0xe2, 0x00, 0x24, 0xd5, 0xfb, 0x00, 0xdc, 0x00, 0x39,
  0x31, 0xf2, 0x1c, 0xff, 0x17, 0x2c, 0x01, 0x4b, 0x44, 0x00, 0x08, 0x2a,
  0xe0, 0x0b, 0x93, 0xcb, 0xec, 0x12, 0xf6, 0x01, 0xa7, 0x8d, 0x00, 0x2c,
  0x48, 0x22, 0xff, 0x00, 0x13, 0x00, 0xd5, 0xdc, 0xf7, 0xfb, 0xc4, 0xe7,
  0xd9, 0x19, 0x06, 0x23, 0x00, 0x0e, 0xb9, 0x00, 0xc2, 0x09, 0xcc, 0xf5,
  0x00, 0x0f, 0xd9, 0xff, 0xab, 0xfe, 0x11, 0x0d, 0x00, 0x28, 0x46, 0x02,
  0x00, 0x09, 0xff, 0x59, 0xd6, 0x48, 0x81, 0xff, 0xf2, 0x61, 0xfe, 0x3c,
  0x5e, 0x00, 0xfa, 0x24, 0x0f, 0xf9, 0x2b, 0x3a, 0xd8, 0xf5, 0xe1, 0x19,
  0xf5, 0x1f, 0xe4, 0x32, 0x55, 0x0e, 0x0e, 0xf9, 0x2f, 0x00, 0xdd, 0xdd,
  0x06, 0x63, 0xfb, 0xcd, 0x31, 0xd7, 0x0d, 0xdd, 0x01, 0x24, 0x81, 0x00,
  0xe2, 0x45, 0x04, 0x9f, 0x01, 0xeb, 0x88, 0x09, 0xa6, 0xdd, 0x58, 0x0e,
  0xff, 0x3a, 0x2c, 0xe9, 0x00, 0xdd, 0x0d, 0xe1, 0xf8, 0x2f, 0x07, 0x01,
  0x76, 0x2a, 0xfd, 0x23, 0xe6, 0x01, 0x28, 0x24, 0xee, 0x10, 0x1f, 0x10,
  0x2a, 0xe2, 0xe6, 0x02, 0x81, 0xe3, 0x35, 0x19, 0x25, 0xd8, 0xf5, 0xfd,
  0x09, 0xff, 0x01, 0x0a, 0xcb, 0xec, 0xfe, 0x0f, 0xdf, 0xff, 0x17, 0x38,
  0x00, 0x04, 0x68, 0x00, 0x02, 0x0e, 0x1f, 0xfb, 0x00, 0xe1, 0xf5, 0xed,
  0xe0, 0x06, 0xd7, 0xc8, 0x00, 0x00, 0xd3, 0x50, 0xff, 0x1e, 0xfd, 0xcf,
  0xc8, 0x14, 0x33, 0xed, 0x07, 0xfb, 0xd5, 0xc1, 0xf5, 0x00, 0x1a, 0xf1,
  0x37, 0x1a, 0x02, 0x4c, 0x53, 0xef, 0xa5, 0x05, 0x7f, 0x12, 0x01, 0x11,
  0x14, 0xf2, 0x28, 0xfb, 0xfd, 0x01, 0x21, 0xeb, 0xd9, 0x34, 0x03, 0x5a,
  0x16, 0x1e, 0x04, 0x15, 0x01, 0x1e, 0x56, 0x00, 0xdb, 0xbe, 0x12, 0xf4,
  0x00, 0x2b, 0x02, 0x04, 0xc2, 0xe1, 0x2e, 0xe3, 0x00, 0xd6, 0xb4, 0xfd,
  0x00, 0xfb, 0xfd, 0x3c, 0x18, 0x2e, 0xc3, 0x00, 0xca, 0x2a, 0x07, 0x36,
  0x22, 0x00, 0x34, 0xc2, 0x3e, 0x08, 0xfd, 0xe3, 0xe7, 0xe2, 0xd3, 0x16,
  0xba, 0xc6, 0xbc, 0x06, 0x12, 0xfc, 0x1a, 0x02, 0xda, 0xff, 0xfa, 0x0f,
  0x01, 0x49, 0xe3, 0xd5, 0x06, 0x1e, 0x07, 0x79, 0xff, 0x63, 0xbf, 0xff,
  0xd5, 0x7f, 0xf4, 0xbb, 0x00, 0x0f, 0x4f, 0xfc, 0xcf, 0x07, 0x61, 0x17,
  0xff, 0xf8, 0x3d, 0xe7, 0xff, 0xe5, 0x03, 0x4e, 0x09, 0x1c, 0xb6, 0x01,
  0x4d, 0x63, 0x07, 0xfa, 0xeb, 0x00, 0xf1, 0x63, 0x3e, 0xb3, 0x04, 0xbc,
  0x20, 0xc5, 0xb4, 0xa9, 0xf8, 0x03, 0xb8, 0x2c, 0x06, 0x37, 0x23, 0xf9,
  0xff, 0x02, 0xe2, 0xf2, 0xde, 0x00, 0xab, 0xdf, 0x12, 0x62, 0x1f, 0xba,
  0x01, 0x0d, 0x02, 0x01, 0xb8, 0x78, 0x1e, 0xe5, 0x00, 0x44, 0x9e, 0x03,
  0xd9, 0x02, 0x1b, 0x24, 0x01, 0x6a, 0x3b, 0x81, 0x01, 0x25, 0xfb, 0xf6,
  0xb3, 0x21, 0xeb, 0x00, 0xf9, 0x61, 0xf7, 0x68, 0x16, 0x01, 0x21, 0x09,
  0x0b, 0xab, 0x5d, 0x1c, 0xe3, 0x56, 0xa4, 0xbd, 0x0b, 0x01, 0xe0, 0x27,
  0x15, 0x51, 0x25, 0x12, 0xfa, 0x02, 0x88, 0xfa, 0xc0, 0x7f, 0xd2, 0xee,
  0xec, 0x0d, 0x1e, 0x92, 0x01, 0x10, 0xf6, 0x01, 0xad, 0x63, 0x1f, 0x98,
  0x00, 0x26, 0xb3, 0x05, 0x26, 0x2a, 0x73, 0x2a, 0x01, 0x3d, 0x41, 0xdc,
  0x01, 0xe3, 0xfc, 0x4a, 0xd8, 0x34, 0xd4, 0x03, 0x30, 0xff, 0x04, 0x68,
  0xc0, 0x00, 0x11, 0x02, 0xfb, 0xb9, 0x31, 0x20, 0xc1, 0x29, 0xee, 0xfb,
  0xa6, 0xdf, 0x7f, 0x69, 0x0c, 0x2e, 0x03, 0x00, 0x2f, 0x00, 0x3f, 0xdf,
  0x08, 0xb1, 0x70, 0x2a, 0x10, 0xc9, 0xf5, 0x5e, 0x00, 0xca, 0xf4, 0xff,
  0x50, 0x02, 0xfb, 0x1f, 0x00, 0xc6, 0x2c, 0xdd, 0xd7, 0xda, 0x86, 0x01,
  0x00, 0xc3, 0xe7, 0xe0, 0x00, 0xc4, 0x01, 0x23, 0xa9, 0x1a, 0xf0, 0xea,
  0x00, 0x20, 0xcd, 0x04, 0xa9, 0x00, 0xf4, 0x88, 0xd7, 0xcd, 0xee, 0x47,
  0xcf, 0xe1, 0x2a, 0x01, 0xe0, 0xe1, 0x04, 0x28, 0x5a, 0x12, 0x12, 0xfc,
  0xe5, 0xff, 0x8f, 0x0a, 0xbe, 0x2a, 0x81, 0xc2, 0x11, 0x21, 0x1e, 0xe3,
  0xff, 0xfc, 0xb6, 0xff, 0xff, 0x50, 0x1f, 0xa9, 0xff, 0x15, 0xd5, 0x01,
  0xd1, 0x1c, 0x0d, 0x21, 0x00, 0x36, 0x69, 0x17, 0xff, 0x21, 0xfb, 0x1e,
  0xd4, 0x21, 0x98, 0xfc, 0x33, 0x2c, 0xfb, 0xdc, 0xf7, 0xff, 0x34, 0xe3,
  0x01, 0xe0, 0x20, 0x17, 0xb3, 0x1e, 0xd7, 0xcd, 0xd5, 0xf4, 0xf3, 0x10,
  0xd6, 0xce, 0x14, 0x01, 0x05, 0x00, 0x0f, 0xcc, 0xef, 0xd3, 0xf3, 0x4f,
  0x0c, 0x0a, 0x04, 0x24, 0x00, 0x06, 0x43, 0x00, 0xf9, 0xb4, 0x2b, 0x05,
  0xfe, 0x10, 0x7f, 0xff, 0xff, 0xeb, 0xed, 0x06, 0x00, 0xb6, 0x09, 0x3b,
  0x00, 0xf8, 0x00, 0xe2, 0xe7, 0xf9, 0x1b, 0xfa, 0xdd, 0xed, 0xf4, 0xec,
  0xda, 0x00, 0x44, 0x2b, 0x01, 0xf9, 0xd7, 0xea, 0x5d, 0x1d, 0x2f, 0x11,
  0xb2, 0xf4, 0xff, 0xff, 0x04, 0x00, 0x00, 0x00, 0x40, 0x00, 0x00, 0x00,
  0x18, 0x4d, 0x6f, 0x3e, 0x67, 0xb0, 0xce, 0xbd, 0xaf, 0xaf, 0x18, 0x3e,
  0x92, 0xd7, 0x57, 0xbf, 0xe3, 0xf5, 0x59, 0x3f, 0xee, 0xa1, 0xd8, 0x3f,
  0x15, 0x60, 0x1c, 0x3f, 0x01, 0xfe, 0xcf, 0x3f, 0x2a, 0x8d, 0xe6, 0xbf,
  0xa5, 0xfe, 0x14, 0xbf, 0xe4, 0x4e, 0x36, 0xbf, 0xc2, 0x17, 0x3c, 0x3f,
  0x1d, 0xcf, 0x23, 0xbf, 0x20, 0xbf, 0xe6, 0x3f, 0x4c, 0x81, 0xc4, 0x3e,
  0x3c, 0x00, 0x58, 0x3f, 0xfe, 0xf4, 0xff, 0xff, 0x04, 0x00, 0x00, 0x00,
  0x00, 0x08, 0x00, 0x00, 0xd7, 0x71, 0x71, 0xba, 0x78, 0x69, 0xe0, 0x3e,
  0xae, 0x45, 0x65, 0x3f, 0x70, 0x50, 0xca, 0x40, 0xdd, 0x80, 0x02, 0x3f,
  0xeb, 0x9d, 0x37, 0xbe, 0xdd, 0x43, 0x7c, 0x3e, 0x64, 0xe1, 0x2f, 0x40,
  0x62, 0x06, 0xd7, 0x3d, 0x5d, 0xa7, 0xd0, 0xbf, 0xbc, 0x5b, 0xf5, 0x3d,
  0x9f, 0x5f, 0x56, 0xbf, 0x9d, 0xdc, 0x7a, 0x40, 0xc3, 0x8a, 0xcc, 0x3e,
  0x40, 0x24, 0x3b, 0x40, 0x89, 0xac, 0xfb, 0x3c, 0x3c, 0x6e, 0xa0, 0x3e,
  0xd9, 0x75, 0xe9, 0x3d, 0x09, 0x10, 0xcd, 0x3e, 0xf0, 0x69, 0x5e, 0x3d,
  0x17, 0xd7, 0x50, 0x3e, 0xca, 0xe7, 0xa7, 0xbf, 0xe6, 0x65, 0x24, 0xc0,
  0x81, 0xd4, 0x22, 0x3e, 0xf1, 0x7c, 0x2b, 0x3f, 0x70, 0x40, 0x0d, 0x3f,
  0x2d, 0xa1, 0x0f, 0x3f, 0x8b, 0x32, 0xca, 0xbe, 0xdf, 0xc8, 0x1a, 0xbd,
  0x4e, 0xe9, 0x5a, 0x40, 0xff, 0x6a, 0x64, 0xbe, 0xca, 0xea, 0x90, 0x40,
  0xab, 0x23, 0xef, 0xbd, 0xcf, 0x26, 0x24, 0x3f, 0xb1, 0x6c, 0x9e, 0xbf,
  0x6d, 0xf6, 0x6b, 0xbe, 0x0a, 0x2d, 0xac, 0xbd, 0x17, 0xab, 0x23, 0xbe,
  0x69, 0xa4, 0x2c, 0xbf, 0x83, 0x94, 0xdf, 0xc0, 0x1e, 0x82, 0x9d, 0xbf,
  0x20, 0xb0, 0x24, 0xbf, 0x13, 0xaa, 0x32, 0x3e, 0x1c, 0x22, 0xfb, 0xbf,
  0xdf, 0xae, 0x92, 0xc0, 0x14, 0x3d, 0x9f, 0xbd, 0x0e, 0xe0, 0x20, 0xc0,
  0xe4, 0x2f, 0x62, 0xbe, 0x04, 0x19, 0xee, 0xbd, 0x0c, 0xcd, 0x04, 0x3d,
  0x44, 0xbd, 0x59, 0x3e, 0xb2, 0x23, 0x60, 0x3e, 0x52, 0x54, 0xb0, 0xbf,
  0x11, 0xd3, 0x81, 0x3f, 0x8d, 0xb0, 0x9a, 0x3e, 0xf8, 0x0a, 0xf8, 0xbd,
  0x45, 0x81, 0x8f, 0xbf, 0xb6, 0x8b, 0xb2, 0x3d, 0xb6, 0xcc, 0x86, 0x3d,
  0x53, 0x18, 0x2d, 0xbd, 0x18, 0xcb, 0x98, 0xbe, 0x9b, 0x72, 0x8f, 0xc0,
  0x66, 0x00, 0x4a, 0x3e, 0x8f, 0xc6, 0x63, 0xc0, 0x56, 0x3a, 0xb0, 0x3d,
  0xc5, 0x84, 0x82, 0x3d, 0x3f, 0x7d, 0xcf, 0xbf, 0x2e, 0x83, 0xd4, 0x3f,
  0x8d, 0x43, 0x64, 0xbe, 0x22, 0xe5, 0x30, 0xbe, 0x82, 0xae, 0xca, 0xbe,
  0xc3, 0xd2, 0xb6, 0xc0, 0xf4, 0x99, 0x8a, 0xbf, 0x84, 0x07, 0x2b, 0xbe,
  0xc2, 0xa1, 0x94, 0x3b, 0xa1, 0xe5, 0x0d, 0xc0, 0x7f, 0xde, 0x54, 0xc0,
  0xc9, 0x69, 0x9a, 0x3e, 0x1f, 0x59, 0x26, 0xc0, 0x39, 0x41, 0x83, 0xbe,
  0x9b, 0xd3, 0x0c, 0xbe, 0xf6, 0x19, 0x0f, 0xbe, 0xd8, 0x50, 0xc1, 0x3e,
  0x1f, 0xb5, 0x4b, 0xbd, 0x62, 0x65, 0xce, 0xbf, 0x14, 0x3d, 0xc7, 0xbd,
  0x92, 0xc4, 0x53, 0x3f, 0xcc, 0xd9, 0xf2, 0xbe, 0xb4, 0x77, 0xb5, 0xbf,
  0xed, 0xc2, 0xaf, 0xbd, 0x6e, 0x0e, 0x86, 0xbd, 0xd1, 0x2b, 0x3a, 0xbd,
  0xa3, 0x08, 0x5b, 0xbd, 0xdd, 0x1a, 0x50, 0xc0, 0xfe, 0x7b, 0xa9, 0x3d,
  0xd9, 0x0b, 0x4a, 0xc0, 0x9a, 0x61, 0x2a, 0x3e, 0x6f, 0x40, 0x03, 0xbf,
  0x70, 0x97, 0x36, 0x3f, 0xbe, 0xf3, 0x4c, 0x3d, 0xe2, 0xc5, 0x8c, 0x3e,
  0x03, 0x6f, 0xb8, 0x3d, 0xaf, 0x9d, 0x2c, 0x3f, 0xbf, 0xfd, 0x65, 0x40,
  0x46, 0x41, 0x07, 0x3f, 0xa9, 0x91, 0x4a, 0xbe, 0xe8, 0xce, 0x42, 0x3e,
  0x29, 0xea, 0xd6, 0xbf, 0xe3, 0x1f, 0x7d, 0xbf, 0x7a, 0x21, 0x95, 0x3e,
  0x5a, 0x8d, 0xc6, 0xbe, 0x9c, 0x94, 0xeb, 0xbd, 0x68, 0x45, 0x13, 0x3f,
  0x39, 0xd2, 0xc2, 0xbc, 0x5a, 0xd4, 0xec, 0xbc, 0xe6, 0xcc, 0xb0, 0x3e,
  0x58, 0x38, 0x5f, 0x3e, 0x53, 0xb9, 0x27, 0xbf, 0x53, 0xa6, 0x96, 0xbf,
  0xfc, 0x38, 0x00, 0x3f, 0x77, 0x4d, 0x58, 0xbd, 0x58, 0x14, 0x2a, 0x3f,
  0x2a, 0xa4, 0xcd, 0xbe, 0x79, 0x07, 0x3e, 0x3e, 0x23, 0xe6, 0xd2, 0xbd,
  0x05, 0x76, 0x74, 0x3f, 0xd1, 0x19, 0xd9, 0x3e, 0x1a, 0x2b, 0x11, 0x40,
  0xa3, 0x2b, 0xb6, 0xbd, 0xf0, 0x8a, 0xc8, 0x3d, 0x52, 0xcc, 0x74, 0xbf,
  0xac, 0xcf, 0x35, 0x40, 0x42, 0xd1, 0xae, 0xbd, 0x70, 0x53, 0xb9, 0x3c,
  0xd7, 0x6b, 0xaf, 0xbe, 0x92, 0x84, 0xd3, 0xc0, 0x47, 0x4b, 0xd1, 0xbf,
  0xde, 0x8c, 0xa0, 0xbe, 0x69, 0xa1, 0xac, 0xbb, 0x07, 0x30, 0xf0, 0xbf,
  0xb2, 0xf8, 0x69, 0xc0, 0x2f, 0xad, 0x9f, 0xbd, 0x70, 0x71, 0x45, 0xc0,
  0x04, 0x6b, 0x61, 0xbe, 0x2a, 0x07, 0xbf, 0xbe, 0x31, 0x39, 0x81, 0xbc,
  0x3b, 0xd8, 0xae, 0x3e, 0x5b, 0x27, 0xef, 0x3c, 0xde, 0x6a, 0xb8, 0xbf,
  0x27, 0x8c, 0x65, 0x3e, 0xe2, 0x1b, 0x61, 0x3d, 0x1c, 0x15, 0x84, 0xbe,
  0x21, 0xba, 0xd9, 0xbf, 0xf3, 0x48, 0x9b, 0xbd, 0xa0, 0xe9, 0x3d, 0x3e,
  0x4c, 0x0f, 0x14, 0xbd, 0x6b, 0x3b, 0x90, 0xbe, 0x53, 0xc6, 0xd7, 0xbf,
  0xd4, 0xc1, 0xbf, 0xbd, 0xae, 0x80, 0xe4, 0xbf, 0x0c, 0x6f, 0x1d, 0xbf,
  0x56, 0x4a, 0x81, 0xbe, 0x27, 0x46, 0x1f, 0xbf, 0x2f, 0x5d, 0x93, 0xc1,
  0xbb, 0x6d, 0x38, 0xbd, 0x59, 0xd2, 0x0a, 0xbe, 0xe7, 0xcf, 0xdd, 0x3d,
  0x72, 0x3f, 0x84, 0x40, 0x45, 0x8c, 0x80, 0xbf, 0xf6, 0x48, 0xfe, 0x3e,
  0xf1, 0x1d, 0xf7, 0xbe, 0xa3, 0xa0, 0x54, 0x3f, 0xb1, 0xa2, 0x24, 0xbf,
  0x84, 0xe8, 0xf0, 0xbe, 0x80, 0x26, 0x20, 0x40, 0x20, 0x37, 0x9d, 0x3e,
  0xfe, 0x9f, 0x27, 0x3d, 0x5f, 0xc7, 0xf4, 0x3d, 0x4f, 0x42, 0xad, 0xbe,
  0xae, 0x0a, 0xa5, 0xbe, 0x11, 0x10, 0x0b, 0xc1, 0xe1, 0xc0, 0x01, 0x3f,
  0x36, 0x7c, 0x70, 0x3f, 0x40, 0xc9, 0x4e, 0xbd, 0x5f, 0x96, 0x91, 0xbf,
  0x7c, 0x5b, 0x9c, 0xbd, 0xdd, 0xf9, 0x98, 0x3e, 0x15, 0x00, 0x6d, 0x3e,
  0xb5, 0x4e, 0x01, 0x3e, 0xc2, 0xc2, 0xd1, 0xc0, 0xcd, 0x96, 0xb6, 0xbe,
  0xb4, 0xf9, 0xbd, 0xc0, 0x6b, 0xa0, 0x0b, 0x3e, 0x41, 0x28, 0x38, 0x3f,
  0xfe, 0xd5, 0x7c, 0xbf, 0xf8, 0x4b, 0xe0, 0x3f, 0xb4, 0x41, 0x4d, 0xbe,
  0x91, 0x44, 0xd8, 0xbd, 0x7a, 0x32, 0x0f, 0xbf, 0xc4, 0x20, 0x89, 0xc0,
  0x4e, 0x0d, 0xb8, 0xbf, 0x7d, 0x18, 0x30, 0xbf, 0x10, 0x4a, 0x22, 0xbd,
  0xc8, 0x7f, 0xe5, 0xbf, 0xd0, 0x0f, 0x64, 0xc0, 0x8e, 0x49, 0xd3, 0xbc,
  0x72, 0x3e, 0x43, 0xc0, 0x42, 0x37, 0xb9, 0x3c, 0x0b, 0xf5, 0x42, 0xbe,
  0xf8, 0x76, 0x42, 0xbe, 0x4c, 0xee, 0x1a, 0xbe, 0x90, 0x47, 0xab, 0x3d,
  0x5c, 0x62, 0x08, 0xbf, 0x50, 0xcd, 0x17, 0xbe, 0xaf, 0xb4, 0xd0, 0x3e,
  0x7a, 0xf8, 0xd9, 0xbd, 0x6c, 0x1c, 0xf0, 0xbf, 0x77, 0xc2, 0x60, 0xbe,
  0xfb, 0x25, 0x93, 0x3e, 0xbf, 0xd5, 0xef, 0x3d, 0x1e, 0x30, 0x9f, 0xbe,
  0xc9, 0xfe, 0x4d, 0xc0, 0x92, 0x88, 0xfe, 0xbd, 0xb8, 0x06, 0x29, 0xc0,
  0x6b, 0x74, 0xfa, 0x3d, 0x3e, 0xee, 0xd8, 0xbf, 0xe8, 0xc6, 0x04, 0xbe,
  0x48, 0x72, 0x67, 0xc1, 0xf8, 0x42, 0x42, 0x3e, 0xea, 0xf2, 0xf0, 0x3d,
  0xfa, 0x81, 0xdd, 0x3e, 0x6c, 0xaf, 0xcc, 0x3f, 0x4b, 0x73, 0x3a, 0xbe,
  0xcb, 0x2d, 0x83, 0xbd, 0xc9, 0x07, 0xfd, 0xbd, 0xfd, 0x5e, 0x15, 0xc0,
  0xfe, 0xc5, 0x3d, 0x40, 0x7e, 0x43, 0xb9, 0xbe, 0x18, 0x1d, 0x5b, 0x3f,
  0x7a, 0xf5, 0xdf, 0xbb, 0xd5, 0xea, 0xb3, 0x3e, 0x81, 0xed, 0xb2, 0xbd,
  0x9b, 0xe3, 0x49, 0xbf, 0x83, 0x91, 0x79, 0x3e, 0x77, 0x81, 0x34, 0xc0,
  0xa4, 0xe8, 0x98, 0xbf, 0xd2, 0x76, 0x0d, 0x40, 0x2f, 0xe7, 0x03, 0x3f,
  0x2b, 0xc8, 0xe8, 0xbf, 0xd0, 0x72, 0x73, 0x3e, 0x57, 0x93, 0xad, 0xbf,
  0xb0, 0xdc, 0xa7, 0xbb, 0xda, 0x38, 0xbb, 0x3d, 0xd3, 0xaa, 0x08, 0xc1,
  0xd6, 0x91, 0x80, 0xbe, 0x36, 0x9d, 0x1e, 0x3d, 0xdd, 0x61, 0x73, 0x3e,
  0xf2, 0x58, 0x64, 0x3d, 0x84, 0x57, 0x4e, 0xbf, 0x61, 0xe8, 0xf7, 0xc0,
  0x53, 0xfd, 0x7b, 0xbd, 0xfc, 0x8c, 0x6a, 0xbe, 0x6f, 0x48, 0x1c, 0xbf,
  0x66, 0xf0, 0xaa, 0xc0, 0xf7, 0xa9, 0x99, 0xbe, 0x53, 0x45, 0x47, 0x3d,
  0x60, 0x79, 0x5c, 0x3d, 0x1b, 0x18, 0xd1, 0xbf, 0x6c, 0xab, 0x59, 0xc0,
  0xd9, 0x6b, 0x4e, 0x3e, 0x38, 0x28, 0xff, 0xbf, 0x66, 0x5d, 0xe4, 0xb8,
  0x1b, 0x5f, 0xa1, 0xbe, 0x2c, 0x6e, 0xb3, 0xbe, 0x71, 0x9c, 0x6c, 0x3e,
  0xc6, 0xd9, 0x40, 0x3e, 0x99, 0xc9, 0xa8, 0xbf, 0x45, 0x03, 0xb4, 0x3f,
  0x02, 0x7e, 0xbb, 0x3f, 0x8f, 0x9c, 0xeb, 0xbd, 0x13, 0x90, 0x61, 0xbe,
  0x85, 0x9f, 0xbf, 0xbd, 0x76, 0xca, 0xb3, 0x3e, 0x55, 0x32, 0xb4, 0xbe,
  0xf8, 0xb1, 0xe2, 0xbd, 0x0c, 0xd8, 0x89, 0xbf, 0x2f, 0x77, 0x0c, 0x3e,
  0x91, 0x70, 0xce, 0xbf, 0xc5, 0x13, 0x5e, 0x3e, 0x93, 0x85, 0x3d, 0x3e,
  0xc9, 0x7f, 0x39, 0xbf, 0x45, 0x96, 0x81, 0xbd, 0x19, 0x52, 0x23, 0xbe,
  0xfe, 0xea, 0xd0, 0xbc, 0x69, 0xb5, 0xac, 0xbe, 0x7c, 0x8a, 0xb0, 0xc0,
  0xb0, 0x61, 0x7d, 0xbf, 0xe1, 0xbd, 0x18, 0x3e, 0x64, 0x48, 0xbe, 0x3d,
  0x36, 0xab, 0xe2, 0xbf, 0x89, 0x17, 0x36, 0xc0, 0xa6, 0x47, 0x86, 0x3d,
  0x4e, 0xcf, 0x38, 0xc0, 0x6c, 0x76, 0xfd, 0x3b, 0x38, 0x2d, 0xd5, 0xbe,
  0xd9, 0xf8, 0x71, 0xbe, 0x43, 0x15, 0x10, 0x3e, 0x99, 0xc4, 0x29, 0x3e,
  0x3a, 0xdf, 0x48, 0xbf, 0xa6, 0x73, 0x8c, 0x3f, 0xe1, 0x14, 0x1b, 0x3f,
  0x77, 0x18, 0xc1, 0xbe, 0x24, 0x9b, 0xec, 0xbf, 0x99, 0x6f, 0x80, 0xbc,
  0x3f, 0x80, 0x89, 0x3d, 0xeb, 0xd9, 0x6f, 0xbe, 0xeb, 0xef, 0xcb, 0xbd,
  0x7b, 0xde, 0xb6, 0xbf, 0x61, 0x81, 0x42, 0xbc, 0x3b, 0xa7, 0x49, 0xbf,
  0x40, 0x2c, 0x37, 0xbe, 0xea, 0xe5, 0x1f, 0x3f, 0xdf, 0x67, 0xd2, 0xbe,
  0xdd, 0x8b, 0x84, 0xc0, 0xc6, 0xa9, 0x18, 0x3d, 0xf2, 0x5d, 0xa5, 0xbe,
  0x48, 0x90, 0x5a, 0xbf, 0x25, 0xe1, 0xcd, 0xc0, 0xbb, 0xe7, 0xf8, 0xbe,
  0xbb, 0x50, 0x9f, 0x3d, 0x37, 0x89, 0x27, 0x3e, 0x3a, 0x57, 0xfd, 0xbf,
  0xf1, 0x4a, 0x3d, 0xc0, 0xbb, 0xaf, 0x82, 0x3e, 0x08, 0xee, 0x05, 0xbe,
  0x06, 0x2f, 0x7c, 0xbc, 0x51, 0x84, 0x01, 0xbf, 0xfe, 0x51, 0x62, 0xbe,
  0x36, 0x8a, 0xb3, 0x3e, 0x02, 0xcb, 0x9a, 0xbd, 0x67, 0xf4, 0x11, 0xc0,
  0x30, 0x06, 0x4b, 0x3e, 0x51, 0x55, 0xdd, 0x3f, 0xcd, 0xc3, 0x9f, 0xbd,
  0x5e, 0x78, 0x2a, 0xbf, 0x18, 0x24, 0x9f, 0xbb, 0xa4, 0x10, 0x30, 0x3e,
  0x27, 0x92, 0xb1, 0xbe, 0xd5, 0xb9, 0x8f, 0xbe, 0xbd, 0x1d, 0x4e, 0xc0,
  0xcf, 0x2d, 0xbe, 0xbc, 0x97, 0xa2, 0xce, 0xbf, 0x92, 0x87, 0xca, 0xbe,
  0xce, 0xce, 0xf5, 0x3b, 0xa4, 0x82, 0x90, 0xbf, 0x9f, 0xa0, 0xad, 0xc1,
  0x54, 0x28, 0xe2, 0xbd, 0x3d, 0xdb, 0x6d, 0x3e, 0xa0, 0xe2, 0xc2, 0xbc,
  0x32, 0xf2, 0xdb, 0xbf, 0x5b, 0x10, 0x94, 0xbf, 0xf2, 0xab, 0x9b, 0x3f,
  0xba, 0xc4, 0x9c, 0xbe, 0x87, 0xb2, 0xce, 0xbf, 0x0d, 0xcb, 0x22, 0x3e,
  0xd2, 0x72, 0x91, 0xbe, 0xf4, 0x1e, 0xef, 0xbd, 0x98, 0x80, 0xaa, 0x3e,
  0xd2, 0xaf, 0x15, 0x3e, 0xa9, 0x3e, 0x31, 0x3e, 0xfc, 0x64, 0x48, 0xbe,
  0x94, 0x3f, 0x7e, 0x3d, 0x7b, 0xee, 0xeb, 0xc0, 0x87, 0xff, 0xad, 0xbd,
  0x89, 0x62, 0x86, 0x3f, 0xf0, 0x92, 0xd3, 0x3e, 0xc5, 0x5a, 0x74, 0x3e,
  0x78, 0x51, 0xe8, 0xbd, 0xe2, 0xb3, 0x40, 0xbf, 0xa2, 0xc8, 0x0b, 0x3d,
  0x04, 0xd5, 0x5f, 0x3d, 0x9e, 0xaa, 0x17, 0xc1, 0x53, 0xac, 0x62, 0x3e,
  0xb5, 0xff, 0xdf, 0xbf, 0x53, 0xb3, 0xdb, 0x3e, 0x95, 0x5c, 0xec, 0xbe,
  0x0d, 0x5b, 0xa4, 0x3e, 0xd6, 0xe4, 0xd6, 0x3f, 0xc3, 0xee, 0x6a, 0x3e,
  0x96, 0x9a, 0x42, 0x3e, 0xdf, 0xc8, 0x8a, 0x3f, 0xd8, 0x14, 0xe0, 0x3f,
  0x63, 0xb7, 0x6e, 0x3f, 0xfb, 0x0b, 0x4d, 0x3f, 0x79, 0xcd, 0xe1, 0x3e,
  0x9e, 0xed, 0xb5, 0x3f, 0xa4, 0x10, 0x1b, 0x3f, 0x39, 0xc3, 0x17, 0xbd,
  0x49, 0x57, 0xf2, 0x3e, 0xee, 0xd7, 0x93, 0x3e, 0xb1, 0x18, 0x4b, 0x3f,
  0x29, 0x05, 0x6a, 0x3e, 0x0a, 0x77, 0x0a, 0x3e, 0x3a, 0xab, 0xb0, 0x3d,
  0xf7, 0x36, 0x9d, 0x3f, 0xee, 0x49, 0x8b, 0xbf, 0xd5, 0xb2, 0xcb, 0xbe,
  0x7a, 0x66, 0xe3, 0x3d, 0x89, 0x95, 0x7a, 0xbe, 0x3c, 0x5c, 0x20, 0x3f,
  0xeb, 0x4b, 0x15, 0xbf, 0x6a, 0x5c, 0x3d, 0x3e, 0x94, 0xba, 0xd3, 0x3e,
  0x80, 0xbf, 0x2a, 0xc0, 0xe5, 0xf4, 0x84, 0xbd, 0xf9, 0xc9, 0x8f, 0x3f,
  0x45, 0x97, 0x0b, 0xbf, 0x3e, 0x05, 0x85, 0xbe, 0xcd, 0xde, 0xc6, 0xbe,
  0x67, 0x0a, 0x8a, 0xc1, 0xcb, 0x4f, 0x96, 0x3c, 0x5e, 0x25, 0x2c, 0x3e,
  0xbb, 0xea, 0x33, 0xbf, 0xc2, 0xed, 0x55, 0x3f, 0x2c, 0x0f, 0xb5, 0xbf,
  0x08, 0x59, 0xd8, 0xba, 0x63, 0xfc, 0x14, 0xbe, 0xea, 0x25, 0xa2, 0x3f,
  0x9b, 0x39, 0x5d, 0x3f, 0x04, 0x21, 0xff, 0xbe, 0x3c, 0xe9, 0xb1, 0x3f,
  0x42, 0xfa, 0x45, 0x3e, 0xa2, 0x21, 0x6a, 0x3e, 0x73, 0xd8, 0x77, 0xbd,
  0xbd, 0x99, 0x3e, 0xbe, 0x66, 0x13, 0xbd, 0xbe, 0xa6, 0xa0, 0xab, 0xc0,
  0xed, 0x11, 0x57, 0x3f, 0x4e, 0x87, 0x2d, 0x3f, 0x97, 0x22, 0xb4, 0x3d,
  0x64, 0xd6, 0x85, 0xbf, 0x37, 0x5d, 0x2c, 0xbe, 0x40, 0x94, 0x37, 0xbe,
  0x99, 0x45, 0x16, 0x3e, 0x85, 0x90, 0x1e, 0x3d, 0xe8, 0x2c, 0x09, 0xc1,
  0x0f, 0x2f, 0xf9, 0xbe, 0x6e, 0x59, 0x71, 0xc0, 0x27, 0xc1, 0x00, 0xbb,
  0x91, 0x06, 0x16, 0xbe, 0x15, 0xe9, 0xe8, 0x3e, 0xd7, 0x37, 0xc6, 0x40,
  0x03, 0x8f, 0xba, 0x3e, 0x67, 0x2a, 0x17, 0xbe, 0x05, 0x4e, 0x1e, 0x3e,
  0x81, 0x01, 0x30, 0x40, 0x5e, 0xeb, 0x15, 0xbe, 0x6d, 0x65, 0x92, 0xbf,
  0x46, 0x11, 0xa0, 0x3d, 0xe8, 0x68, 0x33, 0x40, 0xe0, 0xb4, 0x8e, 0x40,
  0xcc, 0xe6, 0xe1, 0xbd, 0xec, 0x12, 0xe1, 0x3e, 0xf8, 0x3b, 0xbe, 0xbd,
  0xeb, 0xac, 0x1b, 0x3f, 0x7c, 0xab, 0xe0, 0xbd, 0xda, 0x7e, 0x8d, 0x3e,
  0x47, 0xa2, 0x65, 0x3d, 0x0f, 0x54, 0x3b, 0x3f, 0x1c, 0xc6, 0x35, 0xbf,
  0x7c, 0x62, 0xb9, 0xbf, 0xb4, 0xe9, 0xa9, 0x3d, 0x64, 0x1a, 0x29, 0x3f,
  0x7f, 0x55, 0xdd, 0x3e, 0x7d, 0x39, 0xc9, 0x3e, 0x63, 0x26, 0xee, 0xbe,
  0x47, 0x66, 0xc3, 0x3d, 0x33, 0x6d, 0x8b, 0x3e, 0x2f, 0x89, 0xac, 0x3d,
  0xba, 0x34, 0xe5, 0x3f, 0xfa, 0xd9, 0xd7, 0xbd, 0x17, 0x44, 0x7c, 0x3e,
  0x73, 0xcd, 0x8b, 0xbf, 0xdb, 0xa7, 0xd1, 0x3f, 0xad, 0xa0, 0x2c, 0xbe,
  0x46, 0xdd, 0x8d, 0xbe, 0xd2, 0x32, 0x17, 0xbf, 0x00, 0x0f, 0xf3, 0xc0,
  0x06, 0x39, 0xbc, 0xbf, 0xf4, 0x96, 0x6a, 0x3d, 0x26, 0x1e, 0x81, 0x3e,
  0x6e, 0xef, 0xe1, 0xbf, 0x2f, 0x51, 0x93, 0xc0, 0x23, 0xe4, 0x0c, 0xbe,
  0x30, 0xea, 0x3a, 0xc0, 0x46, 0xa8, 0x83, 0xbe, 0xb6, 0x6a, 0x8b, 0xbe,
  0x60, 0x76, 0xce, 0xbd, 0x7d, 0x73, 0xe8, 0x3d, 0x70, 0xdb, 0x23, 0x3d,
  0x24, 0x31, 0x79, 0xbf, 0x04, 0x8e, 0x74, 0x3e, 0x12, 0x52, 0x2c, 0x3f,
  0x64, 0x73, 0x54, 0xbe, 0x05, 0x28, 0xf5, 0xbf, 0x5c, 0xa5, 0x2e, 0xbe,
  0x30, 0x9a, 0x2d, 0x3e, 0x38, 0x86, 0x95, 0xbe, 0x73, 0xcf, 0x1d, 0xbe,
  0x73, 0x25, 0x61, 0xc0, 0xf7, 0xc5, 0xf2, 0xbd, 0x5d, 0x41, 0x96, 0xc0,
  0x0a, 0xfd, 0xff, 0xff, 0x04, 0x00, 0x00, 0x00, 0x80, 0x00, 0x00, 0x00,
  0x05, 0xdb, 0x8d, 0x40, 0x48, 0x31, 0x07, 0x40, 0xa6, 0x80, 0x1c, 0x40,
  0x6a, 0x3d, 0x18, 0x3f, 0x87, 0x80, 0x95, 0xbf, 0xc7, 0x21, 0x5d, 0xc0,
  0xf1, 0x34, 0x4c, 0x3f, 0x7e, 0xf0, 0x05, 0xc0, 0xa0, 0xb0, 0x97, 0x40,
  0xa3, 0xf6, 0x12, 0xc0, 0xc2, 0xa6, 0xa1, 0x40, 0x47, 0x26, 0x31, 0xc0,
  0x1b, 0xd1, 0x1d, 0xc0, 0xc3, 0xca, 0x6a, 0x40, 0x8b, 0x91, 0xef, 0xbf,
  0xd2, 0x83, 0xb4, 0xc0, 0x49, 0xcf, 0x21, 0xc0, 0x4a, 0xcd, 0x7c, 0xc0,
  0xed, 0x5a, 0x6f, 0x40, 0xb1, 0x1b, 0xb6, 0x40, 0x56, 0x12, 0x31, 0x40,
  0xa7, 0xd5, 0x95, 0x3f, 0x00, 0x99, 0x8a, 0x3f, 0x9f, 0xdd, 0xf0, 0xbf,
  0xf4, 0x09, 0x82, 0x40, 0x7a, 0x93, 0x99, 0xbf, 0x6a, 0x92, 0x1c, 0x40,
  0xc5, 0xb4, 0x0a, 0xc0, 0x99, 0x88, 0xad, 0xc0, 0xd6, 0x18, 0x22, 0x40,
  0xdf, 0xdb, 0xad, 0x40, 0x4b, 0x72, 0xb8, 0x3f, 0x96, 0xfd, 0xff, 0xff,
  0x04, 0x00, 0x00, 0x00, 0x04, 0x00, 0x00, 0x00, 0xcc, 0xfb, 0xbb, 0x36,
  0xa6, 0xfd, 0xff, 0xff, 0x04, 0x00, 0x00, 0x00, 0x40, 0x00, 0x00, 0x00,
  0x65, 0xab, 0x44, 0x3e, 0x29, 0xe2, 0x35, 0xbe, 0x3e, 0x97, 0x49, 0xbe,
  0x86, 0x4e, 0xbc, 0x3e, 0xe0, 0x8a, 0x69, 0xbe, 0x5a, 0xcf, 0x08, 0x3f,
  0x3f, 0xec, 0x38, 0xbe, 0x6f, 0xd2, 0xfd, 0x3e, 0x46, 0x70, 0x6f, 0xbe,
  0xd1, 0x3e, 0x4f, 0xbe, 0x1d, 0xb4, 0x83, 0xbe, 0x75, 0x88, 0x2b, 0x3f,
  0xcd, 0xad, 0xfc, 0x3e, 0xf6, 0x23, 0x1d, 0x3f, 0x1f, 0x3d, 0xac, 0x3e,
  0x90, 0x16, 0x36, 0xbe, 0xf2, 0xfd, 0xff, 0xff, 0x04, 0x00, 0x00, 0x00,
  0x00, 0x02, 0x00, 0x00, 0xe2, 0x0a, 0x1e, 0xbd, 0x69, 0x72, 0x17, 0x3f,
  0xcd, 0x14, 0x2d, 0xbd, 0xd2, 0x1a, 0x14, 0x3f, 0xab, 0x1b, 0x70, 0xbe,
  0x98, 0x05, 0x4c, 0xbd, 0x57, 0x9e, 0x1c, 0xbe, 0x34, 0x35, 0xf9, 0xbd,
  0x00, 0x92, 0x8b, 0xba, 0x80, 0x9c, 0x37, 0xbd, 0xc2, 0x58, 0x8f, 0xbe,
  0x3c, 0x0c, 0x38, 0x3e, 0xe3, 0x69, 0x2d, 0xbd, 0x84, 0xca, 0xaf, 0xbe,
  0xa2, 0xce, 0xa7, 0x38, 0x09, 0xb2, 0xcd, 0x3f, 0xa5, 0xcc, 0x9e, 0xbb,
  0xed, 0x03, 0x07, 0xbf, 0x1f, 0x34, 0xee, 0x3d, 0x6e, 0xce, 0x92, 0x3e,
  0x64, 0xc0, 0x89, 0xbd, 0x71, 0x63, 0x6e, 0xbe, 0x8d, 0x86, 0x96, 0xbc,
  0x72, 0x0d, 0xb4, 0xbe, 0x6a, 0xf0, 0x0b, 0xbd, 0x0d, 0x7d, 0x64, 0x3e,
  0x40, 0xe2, 0x31, 0xbd, 0x9d, 0xe1, 0x13, 0xbe, 0xf5, 0x9c, 0x90, 0xbe,
  0xd8, 0xbf, 0x52, 0x3e, 0x9f, 0x75, 0x90, 0xbe, 0x2c, 0x4c, 0xdd, 0x3d,
  0xef, 0x90, 0x02, 0xbd, 0x18, 0x51, 0x3c, 0xbe, 0xc2, 0x3f, 0x98, 0xbc,
  0x13, 0xa5, 0x93, 0xbe, 0xb7, 0xe3, 0x29, 0xbd, 0x0f, 0xae, 0xe8, 0xbe,
  0xf2, 0x9b, 0x8e, 0xbe, 0xa0, 0xc9, 0xc1, 0xbc, 0x6a, 0x77, 0x78, 0x3e,
  0xa3, 0xc4, 0xb6, 0x3e, 0x88, 0xb3, 0x39, 0xbd, 0x6b, 0x60, 0x8f, 0xbe,
  0xcc, 0x56, 0x78, 0xbe, 0xa0, 0x1e, 0x72, 0x3c, 0xc7, 0xf9, 0x35, 0x3e,
  0xc2, 0xbc, 0x8b, 0xbe, 0x8c, 0xbb, 0x75, 0xbd, 0xe0, 0xa2, 0x08, 0x3c,
  0x40, 0xb5, 0x54, 0xbe, 0x00, 0xac, 0x79, 0x3e, 0xe9, 0x9f, 0xfa, 0xbb,
  0x6a, 0x49, 0x85, 0xbe, 0xc0, 0x5c, 0x62, 0xbd, 0xc8, 0xe5, 0xed, 0x3d,
  0x1b, 0xec, 0x8d, 0x3e, 0xf3, 0x95, 0x9e, 0x3e, 0xec, 0xa9, 0x03, 0xbd,
  0x1b, 0x29, 0x94, 0xbe, 0x48, 0xa9, 0x07, 0xbd, 0x30, 0x3b, 0xd0, 0xbc,
  0xcb, 0x17, 0x3f, 0x3d, 0x8f, 0x32, 0xf3, 0xbe, 0xac, 0x9b, 0x5a, 0xbc,
  0x04, 0x5b, 0xde, 0x3d, 0x91, 0xf9, 0xb5, 0xbb, 0x9c, 0x46, 0xa0, 0xbe,
  0xc4, 0x23, 0x3d, 0xbe, 0x78, 0x2d, 0x0d, 0xbe, 0xdb, 0xde, 0xc2, 0xbb,
  0xd0, 0xb2, 0xb7, 0xbe, 0x80, 0x8d, 0x9d, 0x3e, 0x5a, 0xab, 0xd2, 0xbd,
  0x30, 0x83, 0x97, 0xbc, 0x50, 0x58, 0x91, 0xbd, 0x18, 0xb2, 0x4e, 0xbe,
  0x74, 0x8e, 0x38, 0xbe, 0xe0, 0xbd, 0x6a, 0xbc, 0x30, 0x1e, 0x4b, 0xbd,
  0x47, 0x68, 0x49, 0x3e, 0x64, 0x27, 0x8b, 0x3e, 0x93, 0x5b, 0x9e, 0xbc,
  0xea, 0x2a, 0x1e, 0xbf, 0xec, 0xc9, 0x0a, 0xbc, 0x00, 0xd8, 0xcf, 0x3f,
  0x78, 0x1d, 0xe4, 0xbd, 0xc8, 0xcc, 0x3d, 0x3e, 0xff, 0x89, 0x80, 0xbe,
  0x80, 0x3c, 0xef, 0x3d, 0x06, 0x67, 0x78, 0xbe, 0xee, 0x3d, 0x8f, 0x3e,
  0xbc, 0xc4, 0x2d, 0xbc, 0x0f, 0xea, 0xff, 0xbd, 0xd7, 0x9a, 0xc4, 0x3c,
  0x98, 0xf4, 0xfa, 0x3e, 0x64, 0xfd, 0x71, 0xbe, 0x5e, 0x6a, 0x97, 0x3e,
  0x9e, 0xf6, 0xe3, 0xbd, 0x30, 0x29, 0xc7, 0x3d, 0xa2, 0xaa, 0xfe, 0x3b,
  0xe5, 0x28, 0x89, 0x3e, 0x66, 0xb8, 0x4a, 0xbe, 0x98, 0xbd, 0x5c, 0xbe,
  0xf9, 0x6f, 0x8c, 0xbc, 0xa9, 0x4f, 0x12, 0xbe, 0xe7, 0x6f, 0x71, 0x3e,
  0x4b, 0x67, 0x23, 0xbe, 0xd9, 0x24, 0x09, 0xbe, 0xa0, 0xef, 0x37, 0xbc,
  0x34, 0xda, 0x54, 0xbc, 0x34, 0x53, 0x0c, 0xbf, 0xe9, 0x0e, 0xff, 0xbc,
  0xa4, 0xf1, 0xf7, 0xbd, 0x80, 0x41, 0xcd, 0xbb, 0xa0, 0xff, 0xec, 0x3c,
  0xf2, 0x0c, 0x91, 0xba, 0x28, 0x9f, 0x0b, 0xbe, 0xfd, 0x6b, 0xbb, 0xbb,
  0x3c, 0x7d, 0x08, 0xbf, 0xa0, 0xc9, 0x95, 0xbc, 0x6d, 0x58, 0x1c, 0xbe,
  0xe6, 0x0a, 0xdb, 0xbc, 0x09, 0x27, 0x0d, 0xbe, 0x78, 0xcb, 0x38, 0xbe,
  0x40, 0x76, 0xae, 0xbc, 0xa4, 0xa1, 0x8f, 0xbe, 0x4c, 0x0d, 0x1e, 0x3e,
  0x00, 0x00, 0x06, 0x00, 0x08, 0x00, 0x04, 0x00, 0x06, 0x00, 0x00, 0x00,
  0x04, 0x00, 0x00, 0x00, 0x00, 0x01, 0x00, 0x00, 0x31, 0xd4, 0xe4, 0x3e,
  0x50, 0x8a, 0x1e, 0x3f, 0x00, 0x00, 0x00, 0x00, 0x00, 0x00, 0x00, 0x00,
  0x00, 0x00, 0x00, 0x00, 0x00, 0x00, 0x00, 0x00, 0x36, 0x78, 0xaa, 0xbd,
  0xbc, 0xd1, 0x56, 0x3d, 0x0b, 0xb6, 0x12, 0xbe, 0x47, 0x9f, 0x08, 0x3b,
  0x00, 0x00, 0x00, 0x00, 0x6e, 0xca, 0x7d, 0xbd, 0xfc, 0x92, 0x2a, 0xbd,
  0x00, 0x00, 0x00, 0x00, 0x00, 0x00, 0x00, 0x00, 0x00, 0x00, 0x00, 0x00,
  0x74, 0x43, 0x0b, 0xbd, 0x0d, 0x97, 0x04, 0xbd, 0x31, 0x45, 0xd0, 0xbd,
  0x00, 0x00, 0x00, 0x00, 0x68, 0x65, 0x0d, 0xbb, 0x00, 0x00, 0x00, 0x00,
  0x00, 0x00, 0x00, 0x00, 0xe6, 0xe1, 0x05, 0xba, 0x00, 0x00, 0x00, 0x00,
  0x00, 0x00, 0x00, 0x00, 0x43, 0x3e, 0x78, 0xbe, 0x00, 0x00, 0x00, 0x00,
  0x5c, 0xa1, 0x72, 0xbb, 0x4c, 0xee, 0x99, 0xbd, 0x00, 0x00, 0x00, 0x00,
  0xb3, 0xb9, 0x2d, 0xbf, 0x42, 0x2d, 0x12, 0xbc, 0xe2, 0x9f, 0x17, 0xbe,
  0x00, 0x00, 0x00, 0x00, 0x28, 0xdb, 0xd8, 0x3d, 0x3a, 0x3d, 0xb9, 0x3b,
  0x00, 0x00, 0x00, 0x00, 0x00, 0x00, 0x00, 0x00, 0x00, 0x00, 0x00, 0x00,
  0xc7, 0x07, 0x08, 0xbb, 0x41, 0x59, 0x85, 0xbd, 0xf7, 0xb2, 0xb3, 0x3d,
  0x00, 0x00, 0x00, 0x00, 0x00, 0x00, 0x00, 0x00, 0x00, 0x00, 0x00, 0x00,
  0xd3, 0x1f, 0xa0, 0xbd, 0xab, 0x8f, 0x8f, 0xbc, 0x00, 0x00, 0x00, 0x00,
  0x00, 0x00, 0x00, 0x00, 0xa0, 0x82, 0x02, 0xbb, 0x00, 0x00, 0x00, 0x00,
  0x17, 0x5a, 0x91, 0xbd, 0xd0, 0x2d, 0x9e, 0x3a, 0x00, 0x00, 0x00, 0x00,
  0x31, 0x39, 0x23, 0xbe, 0x4d, 0xee, 0x3c, 0xbd, 0x00, 0x00, 0x00, 0x00,
  0xa5, 0x6c, 0xe4, 0xbb, 0xd8, 0x44, 0x08, 0xbe, 0x00, 0x00, 0x00, 0x00,
  0x19, 0xb3, 0x83, 0xbd, 0x00, 0x00, 0x00, 0x00, 0x00, 0x00, 0x00, 0x00,
  0xe4, 0xf6, 0xff, 0xff, 0xe8, 0xf6, 0xff, 0xff, 0x0f, 0x00, 0x00, 0x00,
  0x4d, 0x4c, 0x49, 0x52, 0x20, 0x43, 0x6f, 0x6e, 0x76, 0x65, 0x72, 0x74,
  0x65, 0x64, 0x2e, 0x00, 0x01, 0x00, 0x00, 0x00, 0x14, 0x00, 0x00, 0x00,
  0x00, 0x00, 0x0e, 0x00, 0x18, 0x00, 0x14, 0x00, 0x10, 0x00, 0x0c, 0x00,
  0x08, 0x00, 0x04, 0x00, 0x0e, 0x00, 0x00, 0x00, 0x14, 0x00, 0x00, 0x00,
  0x1c, 0x00, 0x00, 0x00, 0x4c, 0x01, 0x00, 0x00, 0x50, 0x01, 0x00, 0x00,
  0x54, 0x01, 0x00, 0x00, 0x04, 0x00, 0x00, 0x00, 0x6d, 0x61, 0x69, 0x6e,
  0x00, 0x00, 0x00, 0x00, 0x05, 0x00, 0x00, 0x00, 0xf4, 0x00, 0x00, 0x00,
  0xa0, 0x00, 0x00, 0x00, 0x68, 0x00, 0x00, 0x00, 0x34, 0x00, 0x00, 0x00,
  0x10, 0x00, 0x00, 0x00, 0x00, 0x00, 0x0a, 0x00, 0x10, 0x00, 0x0c, 0x00,
  0x08, 0x00, 0x04, 0x00, 0x0a, 0x00, 0x00, 0x00, 0x0c, 0x00, 0x00, 0x00,
  0x10, 0x00, 0x00, 0x00, 0x01, 0x00, 0x00, 0x00, 0x01, 0x00, 0x00, 0x00,
  0x0d, 0x00, 0x00, 0x00, 0x01, 0x00, 0x00, 0x00, 0x0c, 0x00, 0x00, 0x00,
  0x5a, 0xff, 0xff, 0xff, 0x10, 0x00, 0x00, 0x00, 0x00, 0x00, 0x00, 0x08,
  0x0c, 0x00, 0x00, 0x00, 0x10, 0x00, 0x00, 0x00, 0x94, 0xf7, 0xff, 0xff,
  0x01, 0x00, 0x00, 0x00, 0x0c, 0x00, 0x00, 0x00, 0x03, 0x00, 0x00, 0x00,
  0x0b, 0x00, 0x00, 0x00, 0x03, 0x00, 0x00, 0x00, 0x04, 0x00, 0x00, 0x00,
  0x8a, 0xff, 0xff, 0xff, 0x10, 0x00, 0x00, 0x00, 0x00, 0x00, 0x00, 0x08,
  0x10, 0x00, 0x00, 0x00, 0x14, 0x00, 0x00, 0x00, 0x7a, 0xff, 0xff, 0xff,
  0x00, 0x00, 0x00, 0x01, 0x01, 0x00, 0x00, 0x00, 0x0b, 0x00, 0x00, 0x00,
  0x03, 0x00, 0x00, 0x00, 0x0a, 0x00, 0x00, 0x00, 0x06, 0x00, 0x00, 0x00,
  0x07, 0x00, 0x00, 0x00, 0xbe, 0xff, 0xff, 0xff, 0x1c, 0x00, 0x00, 0x00,
  0x00, 0x00, 0x00, 0x08, 0x1c, 0x00, 0x00, 0x00, 0x20, 0x00, 0x00, 0x00,
  0x0c, 0x00, 0x08, 0x00, 0x07, 0x00, 0x00, 0x00, 0x00, 0x00, 0x06, 0x00,
  0x0c, 0x00, 0x00, 0x00, 0x00, 0x00, 0x01, 0x01, 0x01, 0x00, 0x00, 0x00,
  0x0a, 0x00, 0x00, 0x00, 0x03, 0x00, 0x00, 0x00, 0x09, 0x00, 0x00, 0x00,
  0x08, 0x00, 0x00, 0x00, 0x05, 0x00, 0x00, 0x00, 0x00, 0x00, 0x0e, 0x00,
  0x16, 0x00, 0x00, 0x00, 0x10, 0x00, 0x0c, 0x00, 0x0b, 0x00, 0x04, 0x00,
  0x0e, 0x00, 0x00, 0x00, 0x18, 0x00, 0x00, 0x00, 0x00, 0x00, 0x00, 0x08,
  0x18, 0x00, 0x00, 0x00, 0x1c, 0x00, 0x00, 0x00, 0x00, 0x00, 0x06, 0x00,
  0x08, 0x00, 0x07, 0x00, 0x06, 0x00, 0x00, 0x00, 0x00, 0x00, 0x00, 0x01,
  0x01, 0x00, 0x00, 0x00, 0x09, 0x00, 0x00, 0x00, 0x03, 0x00, 0x00, 0x00,
  0x00, 0x00, 0x00, 0x00, 0x02, 0x00, 0x00, 0x00, 0x01, 0x00, 0x00, 0x00,
  0x01, 0x00, 0x00, 0x00, 0x0d, 0x00, 0x00, 0x00, 0x01, 0x00, 0x00, 0x00,
  0x00, 0x00, 0x00, 0x00, 0x0e, 0x00, 0x00, 0x00, 0x54, 0x07, 0x00, 0x00,
  0x00, 0x07, 0x00, 0x00, 0xa8, 0x06, 0x00, 0x00, 0x68, 0x06, 0x00, 0x00,
  0x2c, 0x06, 0x00, 0x00, 0xf0, 0x05, 0x00, 0x00, 0xb0, 0x05, 0x00, 0x00,
  0x74, 0x05, 0x00, 0x00, 0x8c, 0x03, 0x00, 0x00, 0xe0, 0x02, 0x00, 0x00,
  0xe0, 0x01, 0x00, 0x00, 0xdc, 0x00, 0x00, 0x00, 0x60, 0x00, 0x00, 0x00,
  0x04, 0x00, 0x00, 0x00, 0xfa, 0xf8, 0xff, 0xff, 0x00, 0x00, 0x00, 0x01,
  0x14, 0x00, 0x00, 0x00, 0x1c, 0x00, 0x00, 0x00, 0x1c, 0x00, 0x00, 0x00,
  0x0e, 0x00, 0x00, 0x00, 0x34, 0x00, 0x00, 0x00, 0x02, 0x00, 0x00, 0x00,
  0xff, 0xff, 0xff, 0xff, 0x01, 0x00, 0x00, 0x00, 0xe4, 0xf8, 0xff, 0xff,
  0x1b, 0x00, 0x00, 0x00, 0x53, 0x74, 0x61, 0x74, 0x65, 0x66, 0x75, 0x6c,
  0x50, 0x61, 0x72, 0x74, 0x69, 0x74, 0x69, 0x6f, 0x6e, 0x65, 0x64, 0x43,
  0x61, 0x6c, 0x6c, 0x5f, 0x31, 0x3a, 0x30, 0x00, 0x02, 0x00, 0x00, 0x00,
  0x01, 0x00, 0x00, 0x00, 0x01, 0x00, 0x00, 0x00, 0x52, 0xf9, 0xff, 0xff,
  0x00, 0x00, 0x00, 0x01, 0x14, 0x00, 0x00, 0x00, 0x1c, 0x00, 0x00, 0x00,
  0x1c, 0x00, 0x00, 0x00, 0x0d, 0x00, 0x00, 0x00, 0x54, 0x00, 0x00, 0x00,
  0x02, 0x00, 0x00, 0x00, 0xff, 0xff, 0xff, 0xff, 0x01, 0x00, 0x00, 0x00,
  0x3c, 0xf9, 0xff, 0xff, 0x38, 0x00, 0x00, 0x00, 0x73, 0x65, 0x71, 0x75,
  0x65, 0x6e, 0x74, 0x69, 0x61, 0x6c, 0x5f, 0x31, 0x2f, 0x64, 0x65, 0x6e,
  0x73, 0x65, 0x5f, 0x33, 0x5f, 0x31, 0x2f, 0x4d, 0x61, 0x74, 0x4d, 0x75,
  0x6c, 0x3b, 0x73, 0x65, 0x71, 0x75, 0x65, 0x6e, 0x74, 0x69, 0x61, 0x6c,
  0x5f, 0x31, 0x2f, 0x64, 0x65, 0x6e, 0x73, 0x65, 0x5f, 0x33, 0x5f, 0x31,
  0x2f, 0x41, 0x64, 0x64, 0x00, 0x00, 0x00, 0x00, 0x02, 0x00, 0x00, 0x00,
  0x01, 0x00, 0x00, 0x00, 0x01, 0x00, 0x00, 0x00, 0xca, 0xf9, 0xff, 0xff,
  0x00, 0x00, 0x00, 0x01, 0x14, 0x00, 0x00, 0x00, 0x1c, 0x00, 0x00, 0x00,
  0x1c, 0x00, 0x00, 0x00, 0x0c, 0x00, 0x00, 0x00, 0xdc, 0x00, 0x00, 0x00,
  0x02, 0x00, 0x00, 0x00, 0xff, 0xff, 0xff, 0xff, 0x10, 0x00, 0x00, 0x00,
  0xb4, 0xf9, 0xff, 0xff, 0xc2, 0x00, 0x00, 0x00, 0x73, 0x65, 0x71, 0x75,
  0x65, 0x6e, 0x74, 0x69, 0x61, 0x6c, 0x5f, 0x31, 0x2f, 0x62, 0x61, 0x74,
  0x63, 0x68, 0x5f, 0x6e, 0x6f, 0x72, 0x6d, 0x61, 0x6c, 0x69, 0x7a, 0x61,
  0x74, 0x69, 0x6f, 0x6e, 0x5f, 0x31, 0x5f, 0x32, 0x2f, 0x62, 0x61, 0x74,
  0x63, 0x68, 0x6e, 0x6f, 0x72, 0x6d, 0x2f, 0x6d, 0x75, 0x6c, 0x5f, 0x31,
  0x3b, 0x73, 0x65, 0x71, 0x75, 0x65, 0x6e, 0x74, 0x69, 0x61, 0x6c, 0x5f,
  0x31, 0x2f, 0x62, 0x61, 0x74, 0x63, 0x68, 0x5f, 0x6e, 0x6f, 0x72, 0x6d,
  0x61, 0x6c, 0x69, 0x7a, 0x61, 0x74, 0x69, 0x6f, 0x6e, 0x5f, 0x31, 0x5f,
  0x32, 0x2f, 0x62, 0x61, 0x74, 0x63, 0x68, 0x6e, 0x6f, 0x72, 0x6d, 0x2f,
  0x61, 0x64, 0x64, 0x5f, 0x31, 0x3b, 0x73, 0x65, 0x71, 0x75, 0x65, 0x6e,
  0x74, 0x69, 0x61, 0x6c, 0x5f, 0x31, 0x2f, 0x64, 0x65, 0x6e, 0x73, 0x65,
  0x5f, 0x32, 0x5f, 0x31, 0x2f, 0x4d, 0x61, 0x74, 0x4d, 0x75, 0x6c, 0x3b,
  0x73, 0x65, 0x71, 0x75, 0x65, 0x6e, 0x74, 0x69, 0x61, 0x6c, 0x5f, 0x31,
  0x2f, 0x64, 0x65, 0x6e, 0x73, 0x65, 0x5f, 0x32, 0x5f, 0x31, 0x2f, 0x52,
  0x65, 0x6c, 0x75, 0x3b, 0x73, 0x65, 0x71, 0x75, 0x65, 0x6e, 0x74, 0x69,
  0x61, 0x6c, 0x5f, 0x31, 0x2f, 0x64, 0x65, 0x6e, 0x73, 0x65, 0x5f, 0x32,
  0x5f, 0x31, 0x2f, 0x42, 0x69, 0x61, 0x73, 0x41, 0x64, 0x64, 0x00, 0x00,
  0x02, 0x00, 0x00, 0x00, 0x01, 0x00, 0x00, 0x00, 0x10, 0x00, 0x00, 0x00,
  0xca, 0xfa, 0xff, 0xff, 0x00, 0x00, 0x00, 0x01, 0x14, 0x00, 0x00, 0x00,
  0x1c, 0x00, 0x00, 0x00, 0x1c, 0x00, 0x00, 0x00, 0x0b, 0x00, 0x00, 0x00,
  0xd8, 0x00, 0x00, 0x00, 0x02, 0x00, 0x00, 0x00, 0xff, 0xff, 0xff, 0xff,
  0x20, 0x00, 0x00, 0x00, 0xb4, 0xfa, 0xff, 0xff, 0xbe, 0x00, 0x00, 0x00,
  0x73, 0x65, 0x71, 0x75, 0x65, 0x6e, 0x74, 0x69, 0x61, 0x6c, 0x5f, 0x31,
  0x2f, 0x62, 0x61, 0x74, 0x63, 0x68, 0x5f, 0x6e, 0x6f, 0x72, 0x6d, 0x61,
  0x6c, 0x69, 0x7a, 0x61, 0x74, 0x69, 0x6f, 0x6e, 0x5f, 0x31, 0x2f, 0x62,
  0x61, 0x74, 0x63, 0x68, 0x6e, 0x6f, 0x72, 0x6d, 0x2f, 0x6d, 0x75, 0x6c,
  0x5f, 0x31, 0x3b, 0x73, 0x65, 0x71, 0x75, 0x65, 0x6e, 0x74, 0x69, 0x61,
  0x6c, 0x5f, 0x31, 0x2f, 0x62, 0x61, 0x74, 0x63, 0x68, 0x5f, 0x6e, 0x6f,
  0x72, 0x6d, 0x61, 0x6c, 0x69, 0x7a, 0x61, 0x74, 0x69, 0x6f, 0x6e, 0x5f,
  0x31, 0x2f, 0x62, 0x61, 0x74, 0x63, 0x68, 0x6e, 0x6f, 0x72, 0x6d, 0x2f,
  0x61, 0x64, 0x64, 0x5f, 0x31, 0x3b, 0x73, 0x65, 0x71, 0x75, 0x65, 0x6e,
  0x74, 0x69, 0x61, 0x6c, 0x5f, 0x31, 0x2f, 0x64, 0x65, 0x6e, 0x73, 0x65,
  0x5f, 0x31, 0x5f, 0x32, 0x2f, 0x4d, 0x61, 0x74, 0x4d, 0x75, 0x6c, 0x3b,
  0x73, 0x65, 0x71, 0x75, 0x65, 0x6e, 0x74, 0x69, 0x61, 0x6c, 0x5f, 0x31,
  0x2f, 0x64, 0x65, 0x6e, 0x73, 0x65, 0x5f, 0x31, 0x5f, 0x32, 0x2f, 0x52,
  0x65, 0x6c, 0x75, 0x3b, 0x73, 0x65, 0x71, 0x75, 0x65, 0x6e, 0x74, 0x69,
  0x61, 0x6c, 0x5f, 0x31, 0x2f, 0x64, 0x65, 0x6e, 0x73, 0x65, 0x5f, 0x31,
  0x5f, 0x32, 0x2f, 0x42, 0x69, 0x61, 0x73, 0x41, 0x64, 0x64, 0x00, 0x00,
  0x02, 0x00, 0x00, 0x00, 0x01, 0x00, 0x00, 0x00, 0x20, 0x00, 0x00, 0x00,
  0xc6, 0xfb, 0xff, 0xff, 0x00, 0x00, 0x00, 0x01, 0x14, 0x00, 0x00, 0x00,
  0x1c, 0x00, 0x00, 0x00, 0x1c, 0x00, 0x00, 0x00, 0x0a, 0x00, 0x00, 0x00,
  0x6c, 0x00, 0x00, 0x00, 0x02, 0x00, 0x00, 0x00, 0xff, 0xff, 0xff, 0xff,
  0x40, 0x00, 0x00, 0x00, 0xb0, 0xfb, 0xff, 0xff, 0x52, 0x00, 0x00, 0x00,
  0x73, 0x65, 0x71, 0x75, 0x65, 0x6e, 0x74, 0x69, 0x61, 0x6c, 0x5f, 0x31,
  0x2f, 0x64, 0x65, 0x6e, 0x73, 0x65, 0x5f, 0x31, 0x2f, 0x4d, 0x61, 0x74,
  0x4d, 0x75, 0x6c, 0x3b, 0x73, 0x65, 0x71, 0x75, 0x65, 0x6e, 0x74, 0x69,
  0x61, 0x6c, 0x5f, 0x31, 0x2f, 0x64, 0x65, 0x6e, 0x73, 0x65, 0x5f, 0x31,
  0x2f, 0x52, 0x65, 0x6c, 0x75, 0x3b, 0x73, 0x65, 0x71, 0x75, 0x65, 0x6e,
  0x74, 0x69, 0x61, 0x6c, 0x5f, 0x31, 0x2f, 0x64, 0x65, 0x6e, 0x73, 0x65,
  0x5f, 0x31, 0x2f, 0x42, 0x69, 0x61, 0x73, 0x41, 0x64, 0x64, 0x00, 0x00,
  0x02, 0x00, 0x00, 0x00, 0x01, 0x00, 0x00, 0x00, 0x40, 0x00, 0x00, 0x00,
  0x00, 0x00, 0x16, 0x00, 0x1c, 0x00, 0x18, 0x00, 0x17, 0x00, 0x10, 0x00,
  0x0c, 0x00, 0x08, 0x00, 0x00, 0x00, 0x00, 0x00, 0x00, 0x00, 0x07, 0x00,
  0x16, 0x00, 0x00, 0x00, 0x00, 0x00, 0x00, 0x01, 0x20, 0x00, 0x00, 0x00,
  0xb4, 0x01, 0x00, 0x00, 0x09, 0x00, 0x00, 0x00, 0x00, 0x00, 0x00, 0x09,
  0xc0, 0x01, 0x00, 0x00, 0x0c, 0x00, 0x0c, 0x00, 0x00, 0x00, 0x00, 0x00,
  0x08, 0x00, 0x04, 0x00, 0x0c, 0x00, 0x00, 0x00, 0x08, 0x00, 0x00, 0x00,
  0x0c, 0x01, 0x00, 0x00, 0x20, 0x00, 0x00, 0x00, 0x00, 0x00, 0x00, 0x00,
  0x00, 0x00, 0x00, 0x00, 0x00, 0x00, 0x00, 0x00, 0x00, 0x00, 0x00, 0x00,
  0x00, 0x00, 0x00, 0x00, 0x00, 0x00, 0x00, 0x00, 0x00, 0x00, 0x00, 0x00,
  0x00, 0x00, 0x00, 0x00, 0x00, 0x00, 0x00, 0x00, 0x00, 0x00, 0x00, 0x00,
  0x00, 0x00, 0x00, 0x00, 0x00, 0x00, 0x00, 0x00, 0x00, 0x00, 0x00, 0x00,
  0x00, 0x00, 0x00, 0x00, 0x00, 0x00, 0x00, 0x00, 0x00, 0x00, 0x00, 0x00,
  0x00, 0x00, 0x00, 0x00, 0x00, 0x00, 0x00, 0x00, 0x00, 0x00, 0x00, 0x00,
  0x00, 0x00, 0x00, 0x00, 0x00, 0x00, 0x00, 0x00, 0x00, 0x00, 0x00, 0x00,
  0x00, 0x00, 0x00, 0x00, 0x00, 0x00, 0x00, 0x00, 0x00, 0x00, 0x00, 0x00,
  0x00, 0x00, 0x00, 0x00, 0x00, 0x00, 0x00, 0x00, 0x00, 0x00, 0x00, 0x00,
  0x00, 0x00, 0x00, 0x00, 0x00, 0x00, 0x00, 0x00, 0x00, 0x00, 0x00, 0x00,
  0x00, 0x00, 0x00, 0x00, 0x00, 0x00, 0x00, 0x00, 0x00, 0x00, 0x00, 0x00,
  0x00, 0x00, 0x00, 0x00, 0x00, 0x00, 0x00, 0x00, 0x00, 0x00, 0x00, 0x00,
  0x00, 0x00, 0x00, 0x00, 0x00, 0x00, 0x00, 0x00, 0x00, 0x00, 0x00, 0x00,
  0x00, 0x00, 0x00, 0x00, 0x00, 0x00, 0x00, 0x00, 0x00, 0x00, 0x00, 0x00,
  0x00, 0x00, 0x00, 0x00, 0x00, 0x00, 0x00, 0x00, 0x00, 0x00, 0x00, 0x00,
  0x00, 0x00, 0x00, 0x00, 0x00, 0x00, 0x00, 0x00, 0x00, 0x00, 0x00, 0x00,
  0x00, 0x00, 0x00, 0x00, 0x00, 0x00, 0x00, 0x00, 0x00, 0x00, 0x00, 0x00,
  0x00, 0x00, 0x00, 0x00, 0x00, 0x00, 0x00, 0x00, 0x00, 0x00, 0x00, 0x00,
  0x00, 0x00, 0x00, 0x00, 0x00, 0x00, 0x00, 0x00, 0x00, 0x00, 0x00, 0x00,
  0x00, 0x00, 0x00, 0x00, 0x00, 0x00, 0x00, 0x00, 0x00, 0x00, 0x00, 0x00,
  0x00, 0x00, 0x00, 0x00, 0x00, 0x00, 0x00, 0x00, 0x00, 0x00, 0x00, 0x00,
  0x00, 0x00, 0x00, 0x00, 0x20, 0x00, 0x00, 0x00, 0x98, 0x4d, 0x08, 0x3e,
  0xcd, 0x22, 0xb4, 0x3d, 0x77, 0x99, 0xef, 0x3d, 0x8b, 0xc5, 0xd4, 0x3d,
  0xf2, 0x8c, 0xbe, 0x3d, 0xc1, 0x71, 0xf8, 0x3d, 0x5b, 0xb3, 0xeb, 0x3d,
  0xf9, 0xe4, 0x86, 0x3d, 0x04, 0xfa, 0x5a, 0x3d, 0xb9, 0x06, 0xeb, 0x3d,
  0x3f, 0x4e, 0xd0, 0x3d, 0x19, 0x70, 0xe5, 0x3d, 0x64, 0x81, 0x65, 0x3d,
  0x5b, 0x93, 0xf5, 0x3d, 0x6a, 0x99, 0xad, 0x3d, 0x52, 0x44, 0xf8, 0x3d,
  0xa8, 0x10, 0xc9, 0x3d, 0x6a, 0xbf, 0xee, 0x3d, 0x41, 0x91, 0x92, 0x3d,
  0x80, 0x3d, 0x20, 0x3e, 0x37, 0x2b, 0x9f, 0x3d, 0x41, 0xcd, 0x9d, 0x3d,
  0x58, 0x94, 0xee, 0x3d, 0xf4, 0x90, 0xec, 0x3d, 0xfa, 0x61, 0x9f, 0x3d,
  0x14, 0x9e, 0xdf, 0x3d, 0x36, 0x6c, 0x9d, 0x3d, 0x02, 0x9c, 0xed, 0x3d,
  0x2c, 0x5a, 0xfd, 0x3d, 0x5d, 0x4f, 0x68, 0x3d, 0x3d, 0x9e, 0xd4, 0x3d,
  0x16, 0xf3, 0xf2, 0x3d, 0x11, 0x00, 0x00, 0x00, 0x74, 0x66, 0x6c, 0x2e,
  0x70, 0x73, 0x65, 0x75, 0x64, 0x6f, 0x5f, 0x71, 0x63, 0x6f, 0x6e, 0x73,
  0x74, 0x00, 0x00, 0x00, 0x02, 0x00, 0x00, 0x00, 0x20, 0x00, 0x00, 0x00,
  0x40, 0x00, 0x00, 0x00, 0xa2, 0xfe, 0xff, 0xff, 0x00, 0x00, 0x00, 0x01,
  0x10, 0x00, 0x00, 0x00, 0x10, 0x00, 0x00, 0x00, 0x08, 0x00, 0x00, 0x00,
  0x1c, 0x00, 0x00, 0x00, 0x2c, 0xfe, 0xff, 0xff, 0x0f, 0x00, 0x00, 0x00,
  0x61, 0x72, 0x69, 0x74, 0x68, 0x2e, 0x63, 0x6f, 0x6e, 0x73, 0x74, 0x61,
  0x6e, 0x74, 0x36, 0x00, 0x01, 0x00, 0x00, 0x00, 0x10, 0x00, 0x00, 0x00,
  0xda, 0xfe, 0xff, 0xff, 0x00, 0x00, 0x00, 0x01, 0x10, 0x00, 0x00, 0x00,
  0x10, 0x00, 0x00, 0x00, 0x07, 0x00, 0x00, 0x00, 0x1c, 0x00, 0x00, 0x00,
  0x64, 0xfe, 0xff, 0xff, 0x0f, 0x00, 0x00, 0x00, 0x61, 0x72, 0x69, 0x74,
  0x68, 0x2e, 0x63, 0x6f, 0x6e, 0x73, 0x74, 0x61, 0x6e, 0x74, 0x35, 0x00,
  0x02, 0x00, 0x00, 0x00, 0x10, 0x00, 0x00, 0x00, 0x20, 0x00, 0x00, 0x00,
  0x16, 0xff, 0xff, 0xff, 0x00, 0x00, 0x00, 0x01, 0x10, 0x00, 0x00, 0x00,
  0x10, 0x00, 0x00, 0x00, 0x06, 0x00, 0x00, 0x00, 0x1c, 0x00, 0x00, 0x00,
  0xa0, 0xfe, 0xff, 0xff, 0x0f, 0x00, 0x00, 0x00, 0x61, 0x72, 0x69, 0x74,
  0x68, 0x2e, 0x63, 0x6f, 0x6e, 0x73, 0x74, 0x61, 0x6e, 0x74, 0x34, 0x00,
  0x01, 0x00, 0x00, 0x00, 0x20, 0x00, 0x00, 0x00, 0x4e, 0xff, 0xff, 0xff,
  0x00, 0x00, 0x00, 0x01, 0x10, 0x00, 0x00, 0x00, 0x10, 0x00, 0x00, 0x00,
  0x05, 0x00, 0x00, 0x00, 0x1c, 0x00, 0x00, 0x00, 0xd8, 0xfe, 0xff, 0xff,
  0x0f, 0x00, 0x00, 0x00, 0x61, 0x72, 0x69, 0x74, 0x68, 0x2e, 0x63, 0x6f,
  0x6e, 0x73, 0x74, 0x61, 0x6e, 0x74, 0x33, 0x00, 0x01, 0x00, 0x00, 0x00,
  0x01, 0x00, 0x00, 0x00, 0x86, 0xff, 0xff, 0xff, 0x00, 0x00, 0x00, 0x01,
  0x10, 0x00, 0x00, 0x00, 0x10, 0x00, 0x00, 0x00, 0x04, 0x00, 0x00, 0x00,
  0x1c, 0x00, 0x00, 0x00, 0x10, 0xff, 0xff, 0xff, 0x0f, 0x00, 0x00, 0x00,
  0x61, 0x72, 0x69, 0x74, 0x68, 0x2e, 0x63, 0x6f, 0x6e, 0x73, 0x74, 0x61,
  0x6e, 0x74, 0x32, 0x00, 0x02, 0x00, 0x00, 0x00, 0x01, 0x00, 0x00, 0x00,
  0x10, 0x00, 0x00, 0x00, 0xc2, 0xff, 0xff, 0xff, 0x00, 0x00, 0x00, 0x01,
  0x10, 0x00, 0x00, 0x00, 0x10, 0x00, 0x00, 0x00, 0x03, 0x00, 0x00, 0x00,
  0x1c, 0x00, 0x00, 0x00, 0x4c, 0xff, 0xff, 0xff, 0x0f, 0x00, 0x00, 0x00,
  0x61, 0x72, 0x69, 0x74, 0x68, 0x2e, 0x63, 0x6f, 0x6e, 0x73, 0x74, 0x61,
  0x6e, 0x74, 0x31, 0x00, 0x02, 0x00, 0x00, 0x00, 0x40, 0x00, 0x00, 0x00,
  0x02, 0x00, 0x00, 0x00, 0x00, 0x00, 0x16, 0x00, 0x18, 0x00, 0x14, 0x00,
  0x00, 0x00, 0x10, 0x00, 0x0c, 0x00, 0x08, 0x00, 0x00, 0x00, 0x00, 0x00,
  0x00, 0x00, 0x07, 0x00, 0x16, 0x00, 0x00, 0x00, 0x00, 0x00, 0x00, 0x01,
  0x10, 0x00, 0x00, 0x00, 0x10, 0x00, 0x00, 0x00, 0x02, 0x00, 0x00, 0x00,
  0x1c, 0x00, 0x00, 0x00, 0xa0, 0xff, 0xff, 0xff, 0x0e, 0x00, 0x00, 0x00,
  0x61, 0x72, 0x69, 0x74, 0x68, 0x2e, 0x63, 0x6f, 0x6e, 0x73, 0x74, 0x61,
  0x6e, 0x74, 0x00, 0x00, 0x01, 0x00, 0x00, 0x00, 0x40, 0x00, 0x00, 0x00,
  0x00, 0x00, 0x16, 0x00, 0x1c, 0x00, 0x18, 0x00, 0x00, 0x00, 0x14, 0x00,
  0x10, 0x00, 0x0c, 0x00, 0x00, 0x00, 0x00, 0x00, 0x08, 0x00, 0x07, 0x00,
  0x16, 0x00, 0x00, 0x00, 0x00, 0x00, 0x00, 0x01, 0x14, 0x00, 0x00, 0x00,
  0x20, 0x00, 0x00, 0x00, 0x20, 0x00, 0x00, 0x00, 0x01, 0x00, 0x00, 0x00,
  0x3c, 0x00, 0x00, 0x00, 0x02, 0x00, 0x00, 0x00, 0xff, 0xff, 0xff, 0xff,
  0x02, 0x00, 0x00, 0x00, 0x04, 0x00, 0x04, 0x00, 0x04, 0x00, 0x00, 0x00,
  0x1e, 0x00, 0x00, 0x00, 0x73, 0x65, 0x72, 0x76, 0x69, 0x6e, 0x67, 0x5f,
  0x64, 0x65, 0x66, 0x61, 0x75, 0x6c, 0x74, 0x5f, 0x6b, 0x65, 0x72, 0x61,
  0x73, 0x5f, 0x74, 0x65, 0x6e, 0x73, 0x6f, 0x72, 0x3a, 0x30, 0x00, 0x00,
  0x02, 0x00, 0x00, 0x00, 0x01, 0x00, 0x00, 0x00, 0x02, 0x00, 0x00, 0x00,
  0x02, 0x00, 0x00, 0x00, 0x2c, 0x00, 0x00, 0x00, 0x10, 0x00, 0x00, 0x00,
  0x0c, 0x00, 0x0c, 0x00, 0x0b, 0x00, 0x00, 0x00, 0x00, 0x00, 0x04, 0x00,
  0x0c, 0x00, 0x00, 0x00, 0x0e, 0x00, 0x00, 0x00, 0x00, 0x00, 0x00, 0x0e,
  0x0c, 0x00, 0x10, 0x00, 0x0f, 0x00, 0x00, 0x00, 0x08, 0x00, 0x04, 0x00,
  0x0c, 0x00, 0x00, 0x00, 0x09, 0x00, 0x00, 0x00, 0x0c, 0x00, 0x00, 0x00,
  0x00, 0x00, 0x00, 0x09
};

