const unsigned char dht_anomaly_model_tflite[] = {
  0x1c, 0x00, 0x00, 0x00, 0x54, 0x46, 0x4c, 0x33, 0x14, 0x00, 0x20, 0x00,
  0x1c, 0x00, 0x18, 0x00, 0x14, 0x00, 0x10, 0x00, 0x0c, 0x00, 0x00, 0x00,
  0x08, 0x00, 0x04, 0x00, 0x14, 0x00, 0x00, 0x00, 0x1c, 0x00, 0x00, 0x00,
  0x8c, 0x00, 0x00, 0x00, 0xe4, 0x00, 0x00, 0x00, 0x10, 0x05, 0x00, 0x00,
  0x20, 0x05, 0x00, 0x00, 0xa0, 0x0a, 0x00, 0x00, 0x03, 0x00, 0x00, 0x00,
  0x01, 0x00, 0x00, 0x00, 0x04, 0x00, 0x00, 0x00, 0xa2, 0xfa, 0xff, 0xff,
  0x0c, 0x00, 0x00, 0x00, 0x1c, 0x00, 0x00, 0x00, 0x3c, 0x00, 0x00, 0x00,
  0x0f, 0x00, 0x00, 0x00, 0x73, 0x65, 0x72, 0x76, 0x69, 0x6e, 0x67, 0x5f,
  0x64, 0x65, 0x66, 0x61, 0x75, 0x6c, 0x74, 0x00, 0x01, 0x00, 0x00, 0x00,
  0x04, 0x00, 0x00, 0x00, 0x90, 0xff, 0xff, 0xff, 0x0a, 0x00, 0x00, 0x00,
  0x04, 0x00, 0x00, 0x00, 0x08, 0x00, 0x00, 0x00, 0x6f, 0x75, 0x74, 0x70,
  0x75, 0x74, 0x5f, 0x30, 0x00, 0x00, 0x00, 0x00, 0x01, 0x00, 0x00, 0x00,
  0x04, 0x00, 0x00, 0x00, 0x92, 0xfb, 0xff, 0xff, 0x04, 0x00, 0x00, 0x00,
  0x0c, 0x00, 0x00, 0x00, 0x6b, 0x65, 0x72, 0x61, 0x73, 0x5f, 0x74, 0x65,
  0x6e, 0x73, 0x6f, 0x72, 0x00, 0x00, 0x00, 0x00, 0x02, 0x00, 0x00, 0x00,
  0x34, 0x00, 0x00, 0x00, 0x04, 0x00, 0x00, 0x00, 0xdc, 0xff, 0xff, 0xff,
  0x0d, 0x00, 0x00, 0x00, 0x04, 0x00, 0x00, 0x00, 0x13, 0x00, 0x00, 0x00,
  0x43, 0x4f, 0x4e, 0x56, 0x45, 0x52, 0x53, 0x49, 0x4f, 0x4e, 0x5f, 0x4d,
  0x45, 0x54, 0x41, 0x44, 0x41, 0x54, 0x41, 0x00, 0x08, 0x00, 0x0c, 0x00,
  0x08, 0x00, 0x04, 0x00, 0x08, 0x00, 0x00, 0x00, 0x0c, 0x00, 0x00, 0x00,
  0x04, 0x00, 0x00, 0x00, 0x13, 0x00, 0x00, 0x00, 0x6d, 0x69, 0x6e, 0x5f,
  0x72, 0x75, 0x6e, 0x74, 0x69, 0x6d, 0x65, 0x5f, 0x76, 0x65, 0x72, 0x73,
  0x69, 0x6f, 0x6e, 0x00, 0x0e, 0x00, 0x00, 0x00, 0x28, 0x04, 0x00, 0x00,
  0x20, 0x04, 0x00, 0x00, 0xf0, 0x03, 0x00, 0x00, 0xd4, 0x03, 0x00, 0x00,
  0xa4, 0x03, 0x00, 0x00, 0x94, 0x01, 0x00, 0x00, 0x04, 0x01, 0x00, 0x00,
  0xb4, 0x00, 0x00, 0x00, 0xac, 0x00, 0x00, 0x00, 0xa4, 0x00, 0x00, 0x00,
  0x9c, 0x00, 0x00, 0x00, 0x94, 0x00, 0x00, 0x00, 0x74, 0x00, 0x00, 0x00,
  0x04, 0x00, 0x00, 0x00, 0x46, 0xfc, 0xff, 0xff, 0x04, 0x00, 0x00, 0x00,
  0x60, 0x00, 0x00, 0x00, 0x10, 0x00, 0x00, 0x00, 0x00, 0x00, 0x00, 0x00,
  0x08, 0x00, 0x0e, 0x00, 0x08, 0x00, 0x04, 0x00, 0x08, 0x00, 0x00, 0x00,
  0x10, 0x00, 0x00, 0x00, 0x24, 0x00, 0x00, 0x00, 0x00, 0x00, 0x06, 0x00,
  0x08, 0x00, 0x04, 0x00, 0x06, 0x00, 0x00, 0x00, 0x04, 0x00, 0x00, 0x00,
  0x00, 0x00, 0x00, 0x00, 0x0c, 0x00, 0x18, 0x00, 0x14, 0x00, 0x10, 0x00,
  0x0c, 0x00, 0x04, 0x00, 0x0c, 0x00, 0x00, 0x00, 0x05, 0xad, 0xff, 0x25,
  0x62, 0xf5, 0x36, 0x71, 0x02, 0x00, 0x00, 0x00, 0x02, 0x00, 0x00, 0x00,
  0x04, 0x00, 0x00, 0x00, 0x06, 0x00, 0x00, 0x00, 0x32, 0x2e, 0x32, 0x30,
  0x2e, 0x30, 0x00, 0x00, 0xb2, 0xfc, 0xff, 0xff, 0x04, 0x00, 0x00, 0x00,
  0x10, 0x00, 0x00, 0x00, 0x31, 0x2e, 0x31, 0x34, 0x2e, 0x30, 0x00, 0x00,
  0x00, 0x00, 0x00, 0x00, 0x00, 0x00, 0x00, 0x00, 0x34, 0xf7, 0xff, 0xff,
  0x38, 0xf7, 0xff, 0xff, 0x3c, 0xf7, 0xff, 0xff, 0x40, 0xf7, 0xff, 0xff,
  0xde, 0xfc, 0xff, 0xff, 0x04, 0x00, 0x00, 0x00, 0x40, 0x00, 0x00, 0x00,
  0x63, 0x08, 0x4c, 0x3f, 0xc0, 0xd7, 0x4c, 0x3f, 0x3b, 0x5e, 0x34, 0xbf,
  0x7d, 0xe4, 0x14, 0xbf, 0x88, 0x9e, 0x38, 0x3f, 0x2a, 0x17, 0x0a, 0xbf,
  0x79, 0x9c, 0x60, 0x3f, 0x7a, 0xdb, 0x29, 0x3f, 0x0c, 0xb1, 0x07, 0xbf,
  0x6a, 0x89, 0x2b, 0xbf, 0xbb, 0xfd, 0xae, 0x3f, 0x23, 0x35, 0x22, 0xbf,
  0x4b, 0x2f, 0xed, 0xbe, 0x12, 0x4d, 0x32, 0xbf, 0x49, 0x03, 0x71, 0x3f,
  0xa5, 0xef, 0x32, 0xbf, 0x2a, 0xfd, 0xff, 0xff, 0x04, 0x00, 0x00, 0x00,
  0x80, 0x00, 0x00, 0x00, 0x8e, 0x1d, 0x87, 0x3f, 0xda, 0x94, 0x63, 0xbf,
  0x1a, 0xa8, 0xc7, 0xbf, 0x1c, 0xd1, 0x35, 0x3e, 0x8e, 0x48, 0x02, 0x3d,
  0x93, 0xb5, 0x66, 0x3f, 0xe6, 0x1d, 0xb9, 0xbf, 0x6b, 0x6c, 0x08, 0x3f,
  0x65, 0xf8, 0xc6, 0xbf, 0x61, 0xaf, 0xa4, 0x3e, 0xcf, 0x21, 0xa8, 0xbf,
  0xd8, 0x0d, 0x80, 0x3e, 0xda, 0x4c, 0xbe, 0xbf, 0x33, 0x84, 0x3d, 0x3e,
  0xcf, 0xf0, 0x09, 0x40, 0x70, 0x64, 0x78, 0xbf, 0x34, 0xfe, 0xad, 0xbf,
  0x5b, 0x22, 0x90, 0x3e, 0x9b, 0x91, 0x91, 0xbf, 0x39, 0x42, 0x9e, 0xbe,
  0x16, 0x96, 0x2a, 0x40, 0xd8, 0xd2, 0x34, 0x3f, 0xcc, 0x54, 0x68, 0xbf,
  0x06, 0x0f, 0xed, 0xbe, 0x7c, 0x47, 0x93, 0xbf, 0x4e, 0xc7, 0x64, 0x3e,
  0x65, 0xae, 0x97, 0xbf, 0xb3, 0x7d, 0xa4, 0xbe, 0x03, 0xb6, 0xb0, 0xbf,
  0xd0, 0x2e, 0x0b, 0x3d, 0x4f, 0x44, 0xa9, 0xbf, 0x93, 0x18, 0xec, 0xbe,
  0xb6, 0xfd, 0xff, 0xff, 0x04, 0x00, 0x00, 0x00, 0x00, 0x02, 0x00, 0x00,
  0xff, 0xe7, 0x6e, 0x3f, 0x0b, 0xfc, 0x8f, 0xbf, 0x29, 0x23, 0x98, 0x40,
  0x7f, 0xb9, 0x0e, 0x40, 0x69, 0x65, 0xc4, 0xbf, 0x6d, 0x06, 0x1f, 0x40,
  0x4d, 0x98, 0x6d, 0xbf, 0x61, 0x16, 0xde, 0x3f, 0x50, 0x3f, 0x58, 0x40,
  0x6a, 0x58, 0xe5, 0x3f, 0xb7, 0x11, 0x45, 0x40, 0xf1, 0xd0, 0x9d, 0x3f,
  0x02, 0xcc, 0x25, 0x40, 0x54, 0x47, 0x09, 0x40, 0xc8, 0x04, 0x00, 0xbf,
  0xd4, 0x20, 0x0f, 0x3e, 0xda, 0xfd, 0x2d, 0xc0, 0x16, 0x43, 0x31, 0xbe,
  0xa2, 0x32, 0x80, 0x40, 0xd6, 0xb0, 0x0e, 0x40, 0x54, 0xa1, 0x99, 0xbe,
  0xc0, 0x21, 0x00, 0x40, 0x8d, 0x90, 0x92, 0x3e, 0x8c, 0x35, 0x2b, 0xbe,
  0x60, 0x34, 0xac, 0x3f, 0x7e, 0x5a, 0xd6, 0x3f, 0x3a, 0x06, 0xd6, 0x3e,
  0x27, 0x4e, 0xa3, 0x3f, 0x48, 0x5e, 0xf0, 0x3f, 0x05, 0xbe, 0x0d, 0x40,
  0x7b, 0x4c, 0x8e, 0x3e, 0x87, 0x5c, 0xb3, 0x3f, 0xd7, 0xea, 0x7a, 0x3e,
  0x99, 0x28, 0x72, 0x3f, 0xe5, 0xb3, 0x54, 0xc0, 0x7f, 0x9f, 0xb2, 0xbf,
  0x58, 0xc3, 0x84, 0x3f, 0x71, 0xd7, 0xe6, 0xbf, 0xc5, 0x51, 0xfa, 0x3e,
  0x08, 0xff, 0xc0, 0xbe, 0xbe, 0xf8, 0xf8, 0xbf, 0xda, 0x04, 0x31, 0xc0,
  0x63, 0xe4, 0x0c, 0xc0, 0x91, 0xc9, 0xb5, 0xbf, 0x1f, 0x4d, 0x0a, 0xc0,
  0xa5, 0xa9, 0x18, 0xc0, 0x05, 0xb2, 0x86, 0x3f, 0x7f, 0x58, 0x4a, 0xbe,
  0x71, 0xf5, 0x56, 0x3e, 0xd7, 0xa4, 0xa0, 0x3f, 0x0b, 0x68, 0x82, 0xc0,
  0x02, 0xa2, 0xc8, 0xbf, 0x74, 0x03, 0x01, 0x3f, 0x38, 0x7f, 0xfc, 0xbf,
  0x3c, 0x2c, 0xa7, 0x3f, 0x66, 0xe9, 0x5e, 0xbf, 0x04, 0x3e, 0xcf, 0xbf,
  0x92, 0x0c, 0x27, 0xc0, 0x6f, 0x30, 0x13, 0xc0, 0x1b, 0x1a, 0xb9, 0xbf,
  0x0c, 0x4b, 0x06, 0xc0, 0xe0, 0x6b, 0x2b, 0xc0, 0x1b, 0x38, 0x59, 0x3f,
  0x04, 0x97, 0x2a, 0xbf, 0x91, 0x5d, 0x16, 0xc0, 0x4d, 0x24, 0x6b, 0x3e,
  0x4b, 0x39, 0x7c, 0x40, 0x96, 0x49, 0xd2, 0x3f, 0x81, 0x4c, 0x01, 0x3f,
  0x38, 0x91, 0xe5, 0x3f, 0xa3, 0x50, 0x45, 0x3d, 0x2e, 0xf7, 0x30, 0xbe,
  0xa4, 0x7b, 0xf1, 0x3f, 0xe7, 0xcb, 0x0c, 0x40, 0x87, 0x97, 0x0f, 0x3e,
  0x59, 0xe1, 0x95, 0x3e, 0x1a, 0x0e, 0xbc, 0x3f, 0xf1, 0x97, 0x1a, 0x40,
  0xcc, 0x20, 0x83, 0xbe, 0x88, 0x42, 0x69, 0x3f, 0xfa, 0xcb, 0xa6, 0xbe,
  0xcc, 0xab, 0xe7, 0x3e, 0x05, 0x0b, 0x80, 0xc0, 0x40, 0x9f, 0xe3, 0xbf,
  0x08, 0x4e, 0xaf, 0x3f, 0x34, 0x3b, 0x96, 0xbf, 0xcf, 0xc9, 0xab, 0x3f,
  0x8f, 0x61, 0xe4, 0xbe, 0x8c, 0xc9, 0xf2, 0xbf, 0xdb, 0x06, 0x2f, 0xc0,
  0xdf, 0x5e, 0x2b, 0xc0, 0xf9, 0x77, 0x33, 0xbf, 0xad, 0x57, 0x9b, 0xbf,
  0x9f, 0x0d, 0x2a, 0xc0, 0xe6, 0xe1, 0x84, 0x3f, 0xdf, 0x73, 0x97, 0xbf,
  0xf9, 0xb5, 0x08, 0x3f, 0xa9, 0xd2, 0x22, 0xbe, 0x34, 0xe7, 0x5b, 0x40,
  0x04, 0x10, 0x04, 0x40, 0xa4, 0xee, 0x3a, 0xbf, 0xbb, 0xdc, 0xde, 0x3f,
  0x91, 0x04, 0x5e, 0xbf, 0x97, 0xc6, 0x9a, 0x3f, 0xf4, 0xb0, 0xe6, 0x3f,
  0x55, 0x7a, 0x15, 0x40, 0x6d, 0x70, 0x48, 0x40, 0x75, 0x00, 0xab, 0x3f,
  0xca, 0x1d, 0x14, 0x40, 0xed, 0x8e, 0x06, 0x40, 0xdb, 0x6e, 0x2d, 0xbf,
  0xbe, 0xc1, 0x92, 0x3f, 0xd7, 0x83, 0x55, 0x3f, 0xae, 0x93, 0xf9, 0xbe,
  0x32, 0x2f, 0x6a, 0x40, 0x95, 0xd0, 0x22, 0x40, 0xa5, 0x71, 0x1a, 0xbf,
  0x8d, 0xbc, 0xf8, 0x3f, 0x32, 0x8f, 0x6a, 0xbf, 0xf4, 0x3e, 0x78, 0x3f,
  0xa4, 0x60, 0xf6, 0x3f, 0x04, 0xcf, 0xd1, 0x3f, 0x8f, 0x06, 0x43, 0x40,
  0xd8, 0xef, 0x89, 0x3f, 0x89, 0xf1, 0xce, 0x3f, 0xb5, 0xfe, 0x11, 0x40,
  0x54, 0xeb, 0x39, 0xbf, 0x79, 0x57, 0x7e, 0x3f, 0xc2, 0xff, 0xff, 0xff,
  0x04, 0x00, 0x00, 0x00, 0x20, 0x00, 0x00, 0x00, 0xa1, 0xf8, 0x92, 0x40,
  0x6a, 0x5f, 0x64, 0x40, 0xcb, 0xae, 0x56, 0xc0, 0x7f, 0x90, 0x8b, 0xc0,
  0x42, 0x63, 0x5e, 0x40, 0x90, 0x3c, 0x6a, 0xc0, 0x57, 0x0d, 0xa7, 0x40,
  0x64, 0x1f, 0xa5, 0x40, 0xee, 0xff, 0xff, 0xff, 0x04, 0x00, 0x00, 0x00,
  0x04, 0x00, 0x00, 0x00, 0x41, 0xc9, 0x52, 0xbf, 0x00, 0x00, 0x06, 0x00,
  0x08, 0x00, 0x04, 0x00, 0x06, 0x00, 0x00, 0x00, 0x04, 0x00, 0x00, 0x00,
  0x20, 0x00, 0x00, 0x00, 0xc9, 0x5c, 0xb2, 0x3c, 0x69, 0x6d, 0x56, 0xbf,
  0x37, 0x0f, 0x51, 0x3f, 0x5a, 0xe0, 0x6d, 0x3f, 0x01, 0xe1, 0x63, 0xbf,
  0x4e, 0x70, 0x85, 0x3f, 0x72, 0x41, 0x40, 0xbf, 0x99, 0xa2, 0x26, 0xbd,
  0x98, 0xfa, 0xff, 0xff, 0x9c, 0xfa, 0xff, 0xff, 0x0f, 0x00, 0x00, 0x00,
  0x4d, 0x4c, 0x49, 0x52, 0x20, 0x43, 0x6f, 0x6e, 0x76, 0x65, 0x72, 0x74,
  0x65, 0x64, 0x2e, 0x00, 0x01, 0x00, 0x00, 0x00, 0x14, 0x00, 0x00, 0x00,
  0x00, 0x00, 0x0e, 0x00, 0x18, 0x00, 0x14, 0x00, 0x10, 0x00, 0x0c, 0x00,
  0x08, 0x00, 0x04, 0x00, 0x0e, 0x00, 0x00, 0x00, 0x14, 0x00, 0x00, 0x00,
  0x1c, 0x00, 0x00, 0x00, 0x08, 0x01, 0x00, 0x00, 0x0c, 0x01, 0x00, 0x00,
  0x10, 0x01, 0x00, 0x00, 0x04, 0x00, 0x00, 0x00, 0x6d, 0x61, 0x69, 0x6e,
  0x00, 0x00, 0x00, 0x00, 0x04, 0x00, 0x00, 0x00, 0xb0, 0x00, 0x00, 0x00,
  0x68, 0x00, 0x00, 0x00, 0x34, 0x00, 0x00, 0x00, 0x10, 0x00, 0x00, 0x00,
  0x00, 0x00, 0x0a, 0x00, 0x10, 0x00, 0x0c, 0x00, 0x08, 0x00, 0x04, 0x00,
  0x0a, 0x00, 0x00, 0x00, 0x0c, 0x00, 0x00, 0x00, 0x10, 0x00, 0x00, 0x00,
  0x01, 0x00, 0x00, 0x00, 0x01, 0x00, 0x00, 0x00, 0x0a, 0x00, 0x00, 0x00,
  0x01, 0x00, 0x00, 0x00, 0x09, 0x00, 0x00, 0x00, 0x9a, 0xff, 0xff, 0xff,
  0x10, 0x00, 0x00, 0x00, 0x00, 0x00, 0x00, 0x08, 0x0c, 0x00, 0x00, 0x00,
  0x10, 0x00, 0x00, 0x00, 0x44, 0xfb, 0xff, 0xff, 0x01, 0x00, 0x00, 0x00,
  0x09, 0x00, 0x00, 0x00, 0x03, 0x00, 0x00, 0x00, 0x08, 0x00, 0x00, 0x00,
  0x03, 0x00, 0x00, 0x00, 0x02, 0x00, 0x00, 0x00, 0xca, 0xff, 0xff, 0xff,
  0x10, 0x00, 0x00, 0x00, 0x00, 0x00, 0x00, 0x08, 0x10, 0x00, 0x00, 0x00,
  0x14, 0x00, 0x00, 0x00, 0xba, 0xff, 0xff, 0xff, 0x00, 0x00, 0x00, 0x01,
  0x01, 0x00, 0x00, 0x00, 0x08, 0x00, 0x00, 0x00, 0x03, 0x00, 0x00, 0x00,
  0x07, 0x00, 0x00, 0x00, 0x04, 0x00, 0x00, 0x00, 0x01, 0x00, 0x00, 0x00,
  0x00, 0x00, 0x0e, 0x00, 0x16, 0x00, 0x00, 0x00, 0x10, 0x00, 0x0c, 0x00,
  0x0b, 0x00, 0x04, 0x00, 0x0e, 0x00, 0x00, 0x00, 0x18, 0x00, 0x00, 0x00,
  0x00, 0x00, 0x00, 0x08, 0x18, 0x00, 0x00, 0x00, 0x1c, 0x00, 0x00, 0x00,
  0x00, 0x00, 0x06, 0x00, 0x08, 0x00, 0x07, 0x00, 0x06, 0x00, 0x00, 0x00,
  0x00, 0x00, 0x00, 0x01, 0x01, 0x00, 0x00, 0x00, 0x07, 0x00, 0x00, 0x00,
  0x03, 0x00, 0x00, 0x00, 0x00, 0x00, 0x00, 0x00, 0x05, 0x00, 0x00, 0x00,
  0x06, 0x00, 0x00, 0x00, 0x01, 0x00, 0x00, 0x00, 0x0a, 0x00, 0x00, 0x00,
  0x01, 0x00, 0x00, 0x00, 0x00, 0x00, 0x00, 0x00, 0x0b, 0x00, 0x00, 0x00,
  0xe4, 0x03, 0x00, 0x00, 0x90, 0x03, 0x00, 0x00, 0x3c, 0x03, 0x00, 0x00,
  0xfc, 0x02, 0x00, 0x00, 0xbc, 0x02, 0x00, 0x00, 0x70, 0x02, 0x00, 0x00,
  0x0c, 0x02, 0x00, 0x00, 0x78, 0x01, 0x00, 0x00, 0xdc, 0x00, 0x00, 0x00,
  0x60, 0x00, 0x00, 0x00, 0x04, 0x00, 0x00, 0x00, 0x5e, 0xfc, 0xff, 0xff,
  0x00, 0x00, 0x00, 0x01, 0x14, 0x00, 0x00, 0x00, 0x1c, 0x00, 0x00, 0x00,
  0x1c, 0x00, 0x00, 0x00, 0x0b, 0x00, 0x00, 0x00, 0x34, 0x00, 0x00, 0x00,
  0x02, 0x00, 0x00, 0x00, 0xff, 0xff, 0xff, 0xff, 0x01, 0x00, 0x00, 0x00,
  0x48, 0xfc, 0xff, 0xff, 0x1b, 0x00, 0x00, 0x00, 0x53, 0x74, 0x61, 0x74,
  0x65, 0x66, 0x75, 0x6c, 0x50, 0x61, 0x72, 0x74, 0x69, 0x74, 0x69, 0x6f,
  0x6e, 0x65, 0x64, 0x43, 0x61, 0x6c, 0x6c, 0x5f, 0x31, 0x3a, 0x30, 0x00,
  0x02, 0x00, 0x00, 0x00, 0x01, 0x00, 0x00, 0x00, 0x01, 0x00, 0x00, 0x00,
  0xb6, 0xfc, 0xff, 0xff, 0x00, 0x00, 0x00, 0x01, 0x14, 0x00, 0x00, 0x00,
  0x1c, 0x00, 0x00, 0x00, 0x1c, 0x00, 0x00, 0x00, 0x0a, 0x00, 0x00, 0x00,
  0x54, 0x00, 0x00, 0x00, 0x02, 0x00, 0x00, 0x00, 0xff, 0xff, 0xff, 0xff,
  0x01, 0x00, 0x00, 0x00, 0xa0, 0xfc, 0xff, 0xff, 0x38, 0x00, 0x00, 0x00,
  0x73, 0x65, 0x71, 0x75, 0x65, 0x6e, 0x74, 0x69, 0x61, 0x6c, 0x5f, 0x31,
  0x2f, 0x64, 0x65, 0x6e, 0x73, 0x65, 0x5f, 0x32, 0x5f, 0x31, 0x2f, 0x4d,
  0x61, 0x74, 0x4d, 0x75, 0x6c, 0x3b, 0x73, 0x65, 0x71, 0x75, 0x65, 0x6e,
  0x74, 0x69, 0x61, 0x6c, 0x5f, 0x31, 0x2f, 0x64, 0x65, 0x6e, 0x73, 0x65,
  0x5f, 0x32, 0x5f, 0x31, 0x2f, 0x41, 0x64, 0x64, 0x00, 0x00, 0x00, 0x00,
  0x02, 0x00, 0x00, 0x00, 0x01, 0x00, 0x00, 0x00, 0x01, 0x00, 0x00, 0x00,
  0x2e, 0xfd, 0xff, 0xff, 0x00, 0x00, 0x00, 0x01, 0x14, 0x00, 0x00, 0x00,
  0x1c, 0x00, 0x00, 0x00, 0x1c, 0x00, 0x00, 0x00, 0x09, 0x00, 0x00, 0x00,
  0x74, 0x00, 0x00, 0x00, 0x02, 0x00, 0x00, 0x00, 0xff, 0xff, 0xff, 0xff,
  0x08, 0x00, 0x00, 0x00, 0x18, 0xfd, 0xff, 0xff, 0x58, 0x00, 0x00, 0x00,
  0x73, 0x65, 0x71, 0x75, 0x65, 0x6e, 0x74, 0x69, 0x61, 0x6c, 0x5f, 0x31,
  0x2f, 0x64, 0x65, 0x6e, 0x73, 0x65, 0x5f, 0x31, 0x5f, 0x32, 0x2f, 0x4d,
  0x61, 0x74, 0x4d, 0x75, 0x6c, 0x3b, 0x73, 0x65, 0x71, 0x75, 0x65, 0x6e,
  0x74, 0x69, 0x61, 0x6c, 0x5f, 0x31, 0x2f, 0x64, 0x65, 0x6e, 0x73, 0x65,
  0x5f, 0x31, 0x5f, 0x32, 0x2f, 0x52, 0x65, 0x6c, 0x75, 0x3b, 0x73, 0x65,
  0x71, 0x75, 0x65, 0x6e, 0x74, 0x69, 0x61, 0x6c, 0x5f, 0x31, 0x2f, 0x64,
  0x65, 0x6e, 0x73, 0x65, 0x5f, 0x31, 0x5f, 0x32, 0x2f, 0x42, 0x69, 0x61,
  0x73, 0x41, 0x64, 0x64, 0x00, 0x00, 0x00, 0x00, 0x02, 0x00, 0x00, 0x00,
  0x01, 0x00, 0x00, 0x00, 0x08, 0x00, 0x00, 0x00, 0xc6, 0xfd, 0xff, 0xff,
  0x00, 0x00, 0x00, 0x01, 0x14, 0x00, 0x00, 0x00, 0x1c, 0x00, 0x00, 0x00,
  0x1c, 0x00, 0x00, 0x00, 0x08, 0x00, 0x00, 0x00, 0x6c, 0x00, 0x00, 0x00,
  0x02, 0x00, 0x00, 0x00, 0xff, 0xff, 0xff, 0xff, 0x10, 0x00, 0x00, 0x00,
  0xb0, 0xfd, 0xff, 0xff, 0x52, 0x00, 0x00, 0x00, 0x73, 0x65, 0x71, 0x75,
  0x65, 0x6e, 0x74, 0x69, 0x61, 0x6c, 0x5f, 0x31, 0x2f, 0x64, 0x65, 0x6e,
  0x73, 0x65, 0x5f, 0x31, 0x2f, 0x4d, 0x61, 0x74, 0x4d, 0x75, 0x6c, 0x3b,
  0x73, 0x65, 0x71, 0x75, 0x65, 0x6e, 0x74, 0x69, 0x61, 0x6c, 0x5f, 0x31,
  0x2f, 0x64, 0x65, 0x6e, 0x73, 0x65, 0x5f, 0x31, 0x2f, 0x52, 0x65, 0x6c,
  0x75, 0x3b, 0x73, 0x65, 0x71, 0x75, 0x65, 0x6e, 0x74, 0x69, 0x61, 0x6c,
  0x5f, 0x31, 0x2f, 0x64, 0x65, 0x6e, 0x73, 0x65, 0x5f, 0x31, 0x2f, 0x42,
  0x69, 0x61, 0x73, 0x41, 0x64, 0x64, 0x00, 0x00, 0x02, 0x00, 0x00, 0x00,
  0x01, 0x00, 0x00, 0x00, 0x10, 0x00, 0x00, 0x00, 0xa6, 0xfe, 0xff, 0xff,
  0x00, 0x00, 0x00, 0x01, 0x10, 0x00, 0x00, 0x00, 0x10, 0x00, 0x00, 0x00,
  0x07, 0x00, 0x00, 0x00, 0x44, 0x00, 0x00, 0x00, 0x30, 0xfe, 0xff, 0xff,
  0x36, 0x00, 0x00, 0x00, 0x73, 0x65, 0x71, 0x75, 0x65, 0x6e, 0x74, 0x69,
  0x61, 0x6c, 0x5f, 0x31, 0x2f, 0x64, 0x65, 0x6e, 0x73, 0x65, 0x5f, 0x31,
  0x2f, 0x52, 0x65, 0x6c, 0x75, 0x3b, 0x73, 0x65, 0x71, 0x75, 0x65, 0x6e,
  0x74, 0x69, 0x61, 0x6c, 0x5f, 0x31, 0x2f, 0x64, 0x65, 0x6e, 0x73, 0x65,
  0x5f, 0x31, 0x2f, 0x42, 0x69, 0x61, 0x73, 0x41, 0x64, 0x64, 0x00, 0x00,
  0x01, 0x00, 0x00, 0x00, 0x10, 0x00, 0x00, 0x00, 0x06, 0xff, 0xff, 0xff,
  0x00, 0x00, 0x00, 0x01, 0x10, 0x00, 0x00, 0x00, 0x10, 0x00, 0x00, 0x00,
  0x06, 0x00, 0x00, 0x00, 0x28, 0x00, 0x00, 0x00, 0x90, 0xfe, 0xff, 0xff,
  0x1b, 0x00, 0x00, 0x00, 0x73, 0x65, 0x71, 0x75, 0x65, 0x6e, 0x74, 0x69,
  0x61, 0x6c, 0x5f, 0x31, 0x2f, 0x64, 0x65, 0x6e, 0x73, 0x65, 0x5f, 0x31,
  0x2f, 0x4d, 0x61, 0x74, 0x4d, 0x75, 0x6c, 0x00, 0x02, 0x00, 0x00, 0x00,
  0x10, 0x00, 0x00, 0x00, 0x02, 0x00, 0x00, 0x00, 0x4e, 0xff, 0xff, 0xff,
  0x00, 0x00, 0x00, 0x01, 0x10, 0x00, 0x00, 0x00, 0x10, 0x00, 0x00, 0x00,
  0x05, 0x00, 0x00, 0x00, 0x1c, 0x00, 0x00, 0x00, 0xd8, 0xfe, 0xff, 0xff,
  0x0f, 0x00, 0x00, 0x00, 0x61, 0x72, 0x69, 0x74, 0x68, 0x2e, 0x63, 0x6f,
  0x6e, 0x73, 0x74, 0x61, 0x6e, 0x74, 0x33, 0x00, 0x02, 0x00, 0x00, 0x00,
  0x08, 0x00, 0x00, 0x00, 0x10, 0x00, 0x00, 0x00, 0x8a, 0xff, 0xff, 0xff,
  0x00, 0x00, 0x00, 0x01, 0x10, 0x00, 0x00, 0x00, 0x10, 0x00, 0x00, 0x00,
  0x04, 0x00, 0x00, 0x00, 0x1c, 0x00, 0x00, 0x00, 0x14, 0xff, 0xff, 0xff,
  0x0f, 0x00, 0x00, 0x00, 0x61, 0x72, 0x69, 0x74, 0x68, 0x2e, 0x63, 0x6f,
  0x6e, 0x73, 0x74, 0x61, 0x6e, 0x74, 0x32, 0x00, 0x02, 0x00, 0x00, 0x00,
  0x01, 0x00, 0x00, 0x00, 0x08, 0x00, 0x00, 0x00, 0xc6, 0xff, 0xff, 0xff,
  0x00, 0x00, 0x00, 0x01, 0x10, 0x00, 0x00, 0x00, 0x10, 0x00, 0x00, 0x00,
  0x03, 0x00, 0x00, 0x00, 0x1c, 0x00, 0x00, 0x00, 0x50, 0xff, 0xff, 0xff,
  0x0f, 0x00, 0x00, 0x00, 0x61, 0x72, 0x69, 0x74, 0x68, 0x2e, 0x63, 0x6f,
  0x6e, 0x73, 0x74, 0x61, 0x6e, 0x74, 0x31, 0x00, 0x01, 0x00, 0x00, 0x00,
  0x01, 0x00, 0x00, 0x00, 0x00, 0x00, 0x16, 0x00, 0x18, 0x00, 0x14, 0x00,
  0x00, 0x00, 0x10, 0x00, 0x0c, 0x00, 0x08, 0x00, 0x00, 0x00, 0x00, 0x00,
  0x00, 0x00, 0x07, 0x00, 0x16, 0x00, 0x00, 0x00, 0x00, 0x00, 0x00, 0x01,
  0x10, 0x00, 0x00, 0x00, 0x10, 0x00, 0x00, 0x00, 0x02, 0x00, 0x00, 0x00,
  0x1c, 0x00, 0x00, 0x00, 0xa0, 0xff, 0xff, 0xff, 0x0e, 0x00, 0x00, 0x00,
  0x61, 0x72, 0x69, 0x74, 0x68, 0x2e, 0x63, 0x6f, 0x6e, 0x73, 0x74, 0x61,
  0x6e, 0x74, 0x00, 0x00, 0x01, 0x00, 0x00, 0x00, 0x08, 0x00, 0x00, 0x00,
  0x00, 0x00, 0x16, 0x00, 0x1c, 0x00, 0x18, 0x00, 0x00, 0x00, 0x14, 0x00,
  0x10, 0x00, 0x0c, 0x00, 0x00, 0x00, 0x00, 0x00, 0x08, 0x00, 0x07, 0x00,
  0x16, 0x00, 0x00, 0x00, 0x00, 0x00, 0x00, 0x01, 0x14, 0x00, 0x00, 0x00,
  0x20, 0x00, 0x00, 0x00, 0x20, 0x00, 0x00, 0x00, 0x01, 0x00, 0x00, 0x00,
  0x3c, 0x00, 0x00, 0x00, 0x02, 0x00, 0x00, 0x00, 0xff, 0xff, 0xff, 0xff,
  0x02, 0x00, 0x00, 0x00, 0x04, 0x00, 0x04, 0x00, 0x04, 0x00, 0x00, 0x00,
  0x1e, 0x00, 0x00, 0x00, 0x73, 0x65, 0x72, 0x76, 0x69, 0x6e, 0x67, 0x5f,
  0x64, 0x65, 0x66, 0x61, 0x75, 0x6c, 0x74, 0x5f, 0x6b, 0x65, 0x72, 0x61,
  0x73, 0x5f, 0x74, 0x65, 0x6e, 0x73, 0x6f, 0x72, 0x3a, 0x30, 0x00, 0x00,
  0x02, 0x00, 0x00, 0x00, 0x01, 0x00, 0x00, 0x00, 0x02, 0x00, 0x00, 0x00,
  0x02, 0x00, 0x00, 0x00, 0x20, 0x00, 0x00, 0x00, 0x04, 0x00, 0x00, 0x00,
  0xf4, 0xff, 0xff, 0xff, 0x0e, 0x00, 0x00, 0x00, 0x00, 0x00, 0x00, 0x0e,
  0x0c, 0x00, 0x0c, 0x00, 0x0b, 0x00, 0x00, 0x00, 0x00, 0x00, 0x04, 0x00,
  0x0c, 0x00, 0x00, 0x00, 0x09, 0x00, 0x00, 0x00, 0x00, 0x00, 0x00, 0x09
};
